{
  "version": "1.0",
  "truncation": null,
  "padding": null,
  "added_tokens": [
    {
      "id": 0,
      "content": "[UNK]",
      "single_word": false,
      "lstrip": false,
      "rstrip": false,
      "normalized": false,
      "special": true
    },
    {
      "id": 1,
      "content": "[PAD]",
      "single_word": false,
      "lstrip": false,
      "rstrip": false,
      "normalized": false,
      "special": true
    },
    {
      "id": 2,
      "content": "[MASK]",
      "single_word": false,
      "lstrip": false,
      "rstrip": false,
      "normalized": false,
      "special": true
    }
  ],
  "normalizer": null,
  "pre_tokenizer": {
    "type": "Whitespace"
  },
  "post_processor": null,
  "decoder": null,
  "model": {
    "type": "BPE",
    "dropout": null,
    "unk_token": "[UNK]",
    "continuing_subword_prefix": null,
    "end_of_word_suffix": null,
    "fuse_unk": false,
    "byte_fallback": false,
    "ignore_merges": false,
    "vocab": {
      "[UNK]": 0,
      "[PAD]": 1,
      "[MASK]": 2,
      "!": 3,
      "\"": 4,
      "#": 5,
      "$": 6,
      "%": 7,
      "&": 8,
      "'": 9,
      "(": 10,
      ")": 11,
      "*": 12,
      "+": 13,
      ",": 14,
      "-": 15,
      ".": 16,
      "/": 17,
      "0": 18,
      "1": 19,
      "2": 20,
      "3": 21,
      "4": 22,
      "5": 23,
      "6": 24,
      "7": 25,
      "8": 26,
      "9": 27,
      ":": 28,
      ";": 29,
      "<": 30,
      "=": 31,
      ">": 32,
      "?": 33,
      "@": 34,
      "A": 35,
      "B": 36,
      "C": 37,
      "D": 38,
      "E": 39,
      "F": 40,
      "G": 41,
      "H": 42,
      "I": 43,
      "J": 44,
      "K": 45,
      "L": 46,
      "M": 47,
      "N": 48,
      "O": 49,
      "P": 50,
      "Q": 51,
      "R": 52,
      "S": 53,
      "T": 54,
      "U": 55,
      "V": 56,
      "W": 57,
      "X": 58,
      "Y": 59,
      "Z": 60,
      "[": 61,
      "\\": 62,
      "]": 63,
      "^": 64,
      "_": 65,
      "`": 66,
      "a": 67,
      "b": 68,
      "c": 69,
      "d": 70,
      "e": 71,
      "f": 72,
      "g": 73,
      "h": 74,
      "i": 75,
      "j": 76,
      "k": 77,
      "l": 78,
      "m": 79,
      "n": 80,
      "o": 81,
      "p": 82,
      "q": 83,
      "r": 84,
      "s": 85,
      "t": 86,
      "u": 87,
      "v": 88,
      "w": 89,
      "x": 90,
      "y": 91,
      "z": 92,
      "{": 93,
      "|": 94,
      "}": 95,
      "~": 96,
      "": 97,
      "": 98,
      "": 99,
      "": 100,
      "": 101,
      "": 102,
      "": 103,
      "": 104,
      "": 105,
      "": 106,
      "": 107,
      "": 108,
      "": 109,
      "¡": 110,
      "¢": 111,
      "£": 112,
      "¤": 113,
      "¥": 114,
      "¦": 115,
      "§": 116,
      "¨": 117,
      "©": 118,
      "ª": 119,
      "«": 120,
      "¬": 121,
      "­": 122,
      "®": 123,
      "¯": 124,
      "°": 125,
      "±": 126,
      "²": 127,
      "³": 128,
      "´": 129,
      "µ": 130,
      "·": 131,
      "¸": 132,
      "¹": 133,
      "º": 134,
      "»": 135,
      "¼": 136,
      "½": 137,
      "¾": 138,
      "¿": 139,
      "À": 140,
      "Á": 141,
      "Â": 142,
      "Ã": 143,
      "Ä": 144,
      "Å": 145,
      "Æ": 146,
      "Ç": 147,
      "È": 148,
      "É": 149,
      "Ê": 150,
      "Ë": 151,
      "Ì": 152,
      "Í": 153,
      "Î": 154,
      "Ï": 155,
      "Ð": 156,
      "Ñ": 157,
      "Ò": 158,
      "Ó": 159,
      "Ô": 160,
      "Õ": 161,
      "Ö": 162,
      "×": 163,
      "Ø": 164,
      "Ú": 165,
      "Û": 166,
      "Ü": 167,
      "Ý": 168,
      "Þ": 169,
      "ß": 170,
      "à": 171,
      "á": 172,
      "â": 173,
      "ã": 174,
      "ä": 175,
      "å": 176,
      "æ": 177,
      "ç": 178,
      "è": 179,
      "é": 180,
      "ê": 181,
      "ë": 182,
      "ì": 183,
      "í": 184,
      "î": 185,
      "ï": 186,
      "ð": 187,
      "ñ": 188,
      "ò": 189,
      "ó": 190,
      "ô": 191,
      "õ": 192,
      "ö": 193,
      "÷": 194,
      "ø": 195,
      "ù": 196,
      "ú": 197,
      "û": 198,
      "ü": 199,
      "ý": 200,
      "þ": 201,
      "ÿ": 202,
      "Ā": 203,
      "ā": 204,
      "Ă": 205,
      "ă": 206,
      "Ą": 207,
      "ą": 208,
      "Ć": 209,
      "ć": 210,
      "Ĉ": 211,
      "ĉ": 212,
      "Ċ": 213,
      "ċ": 214,
      "Č": 215,
      "č": 216,
      "Ď": 217,
      "ď": 218,
      "Đ": 219,
      "đ": 220,
      "Ē": 221,
      "ē": 222,
      "Ĕ": 223,
      "ĕ": 224,
      "Ė": 225,
      "ė": 226,
      "Ę": 227,
      "ę": 228,
      "Ě": 229,
      "ě": 230,
      "Ĝ": 231,
      "ĝ": 232,
      "Ğ": 233,
      "ğ": 234,
      "Ġ": 235,
      "ġ": 236,
      "Ģ": 237,
      "ģ": 238,
      "Ĥ": 239,
      "ĥ": 240,
      "Ħ": 241,
      "ħ": 242,
      "Ĩ": 243,
      "ĩ": 244,
      "Ī": 245,
      "ī": 246,
      "Ĭ": 247,
      "ĭ": 248,
      "Į": 249,
      "į": 250,
      "İ": 251,
      "ı": 252,
      "Ĳ": 253,
      "ĳ": 254,
      "Ĵ": 255,
      "ĵ": 256,
      "Ķ": 257,
      "ķ": 258,
      "ĸ": 259,
      "Ĺ": 260,
      "ĺ": 261,
      "ļ": 262,
      "Ľ": 263,
      "ľ": 264,
      "ŀ": 265,
      "Ł": 266,
      "ł": 267,
      "Ń": 268,
      "ń": 269,
      "Ņ": 270,
      "ņ": 271,
      "Ň": 272,
      "ň": 273,
      "Ŋ": 274,
      "ŋ": 275,
      "Ō": 276,
      "ō": 277,
      "Ŏ": 278,
      "ŏ": 279,
      "Ő": 280,
      "ő": 281,
      "Œ": 282,
      "œ": 283,
      "Ŕ": 284,
      "ŕ": 285,
      "ŗ": 286,
      "Ř": 287,
      "ř": 288,
      "Ś": 289,
      "ś": 290,
      "Ŝ": 291,
      "ŝ": 292,
      "Ş": 293,
      "ş": 294,
      "Š": 295,
      "š": 296,
      "Ţ": 297,
      "ţ": 298,
      "Ť": 299,
      "ť": 300,
      "Ŧ": 301,
      "ŧ": 302,
      "Ũ": 303,
      "ũ": 304,
      "Ū": 305,
      "ū": 306,
      "Ŭ": 307,
      "ŭ": 308,
      "Ů": 309,
      "ů": 310,
      "Ű": 311,
      "ű": 312,
      "Ų": 313,
      "ų": 314,
      "ŵ": 315,
      "Ŷ": 316,
      "ŷ": 317,
      "Ÿ": 318,
      "Ź": 319,
      "ź": 320,
      "Ż": 321,
      "ż": 322,
      "Ž": 323,
      "ž": 324,
      "ſ": 325,
      "ƀ": 326,
      "ƃ": 327,
      "Ǝ": 328,
      "Ə": 329,
      "Ɛ": 330,
      "Ƒ": 331,
      "ƒ": 332,
      "Ɣ": 333,
      "ƕ": 334,
      "ƛ": 335,
      "Ơ": 336,
      "ơ": 337,
      "ƣ": 338,
      "Ư": 339,
      "ư": 340,
      "ƴ": 341,
      "Ʒ": 342,
      "Ƹ": 343,
      "ƹ": 344,
      "ƿ": 345,
      "ǀ": 346,
      "ǁ": 347,
      "ǂ": 348,
      "ǃ": 349,
      "Ǎ": 350,
      "ǎ": 351,
      "ǐ": 352,
      "ǒ": 353,
      "ǔ": 354,
      "ǖ": 355,
      "ǚ": 356,
      "ǜ": 357,
      "ǝ": 358,
      "Ǣ": 359,
      "ǣ": 360,
      "ǥ": 361,
      "Ǧ": 362,
      "ǧ": 363,
      "ǫ": 364,
      "ǰ": 365,
      "ǵ": 366,
      "Ƿ": 367,
      "ǹ": 368,
      "Ǻ": 369,
      "Ǽ": 370,
      "ǽ": 371,
      "Ȃ": 372,
      "ȃ": 373,
      "ȍ": 374,
      "Ș": 375,
      "ș": 376,
      "Ț": 377,
      "ț": 378,
      "Ȝ": 379,
      "ȝ": 380,
      "Ȟ": 381,
      "ȟ": 382,
      "ȧ": 383,
      "ȭ": 384,
      "Ȳ": 385,
      "ȳ": 386,
      "ȷ": 387,
      "ȿ": 388,
      "Ƀ": 389,
      "Ɉ": 390,
      "ɉ": 391,
      "Ɍ": 392,
      "ɐ": 393,
      "ɑ": 394,
      "ɒ": 395,
      "ɓ": 396,
      "ɔ": 397,
      "ɕ": 398,
      "ɖ": 399,
      "ɗ": 400,
      "ɘ": 401,
      "ə": 402,
      "ɚ": 403,
      "ɛ": 404,
      "ɜ": 405,
      "ɝ": 406,
      "ɟ": 407,
      "ɠ": 408,
      "ɡ": 409,
      "ɢ": 410,
      "ɣ": 411,
      "ɤ": 412,
      "ɥ": 413,
      "ɦ": 414,
      "ɨ": 415,
      "ɩ": 416,
      "ɪ": 417,
      "ɫ": 418,
      "ɬ": 419,
      "ɭ": 420,
      "ɯ": 421,
      "ɱ": 422,
      "ɲ": 423,
      "ɳ": 424,
      "ɴ": 425,
      "ɶ": 426,
      "ɸ": 427,
      "ɹ": 428,
      "ɻ": 429,
      "ɽ": 430,
      "ɾ": 431,
      "ɿ": 432,
      "ʀ": 433,
      "ʁ": 434,
      "ʂ": 435,
      "ʃ": 436,
      "ʄ": 437,
      "ʇ": 438,
      "ʈ": 439,
      "ʉ": 440,
      "ʊ": 441,
      "ʋ": 442,
      "ʌ": 443,
      "ʍ": 444,
      "ʎ": 445,
      "ʏ": 446,
      "ʐ": 447,
      "ʑ": 448,
      "ʒ": 449,
      "ʔ": 450,
      "ʕ": 451,
      "ʙ": 452,
      "ʝ": 453,
      "ʟ": 454,
      "ʡ": 455,
      "ʢ": 456,
      "ʣ": 457,
      "ʤ": 458,
      "ʥ": 459,
      "ʦ": 460,
      "ʧ": 461,
      "ʨ": 462,
      "ʰ": 463,
      "ʱ": 464,
      "ʲ": 465,
      "ʳ": 466,
      "ʷ": 467,
      "ʹ": 468,
      "ʻ": 469,
      "ʼ": 470,
      "ʽ": 471,
      "ʾ": 472,
      "ʿ": 473,
      "ˀ": 474,
      "ˁ": 475,
      "ˆ": 476,
      "ˇ": 477,
      "ˈ": 478,
      "ˉ": 479,
      "ˌ": 480,
      "ː": 481,
      "ˑ": 482,
      "˔": 483,
      "˕": 484,
      "˙": 485,
      "˚": 486,
      "˝": 487,
      "˞": 488,
      "ˠ": 489,
      "ˡ": 490,
      "ˢ": 491,
      "ˤ": 492,
      "˥": 493,
      "˭": 494,
      "˸": 495,
      "̀": 496,
      "́": 497,
      "̂": 498,
      "̃": 499,
      "̄": 500,
      "̅": 501,
      "̆": 502,
      "̇": 503,
      "̈": 504,
      "̉": 505,
      "̊": 506,
      "̌": 507,
      "̍": 508,
      "̑": 509,
      "̔": 510,
      "̚": 511,
      "̜": 512,
      "̝": 513,
      "̞": 514,
      "̟": 515,
      "̠": 516,
      "̡": 517,
      "̣": 518,
      "̤": 519,
      "̥": 520,
      "̦": 521,
      "̨": 522,
      "̩": 523,
      "̪": 524,
      "̭": 525,
      "̯": 526,
      "̰": 527,
      "̱": 528,
      "̲": 529,
      "̶": 530,
      "̺": 531,
      "̻": 532,
      "̼": 533,
      "̽": 534,
      "͈": 535,
      "͏": 536,
      "͘": 537,
      "͙": 538,
      "͜": 539,
      "͡": 540,
      "ͤ": 541,
      "͵": 542,
      "΄": 543,
      "Ά": 544,
      "Έ": 545,
      "Ή": 546,
      "Ί": 547,
      "Ό": 548,
      "Ύ": 549,
      "Ώ": 550,
      "ΐ": 551,
      "Α": 552,
      "Β": 553,
      "Γ": 554,
      "Δ": 555,
      "Ε": 556,
      "Ζ": 557,
      "Η": 558,
      "Θ": 559,
      "Ι": 560,
      "Κ": 561,
      "Λ": 562,
      "Μ": 563,
      "Ν": 564,
      "Ξ": 565,
      "Ο": 566,
      "Π": 567,
      "Ρ": 568,
      "Σ": 569,
      "Τ": 570,
      "Υ": 571,
      "Φ": 572,
      "Χ": 573,
      "Ψ": 574,
      "Ω": 575,
      "Ϊ": 576,
      "ά": 577,
      "έ": 578,
      "ή": 579,
      "ί": 580,
      "ΰ": 581,
      "α": 582,
      "β": 583,
      "γ": 584,
      "δ": 585,
      "ε": 586,
      "ζ": 587,
      "η": 588,
      "θ": 589,
      "ι": 590,
      "κ": 591,
      "λ": 592,
      "μ": 593,
      "ν": 594,
      "ξ": 595,
      "ο": 596,
      "π": 597,
      "ρ": 598,
      "ς": 599,
      "σ": 600,
      "τ": 601,
      "υ": 602,
      "φ": 603,
      "χ": 604,
      "ψ": 605,
      "ω": 606,
      "ϊ": 607,
      "ϋ": 608,
      "ό": 609,
      "ύ": 610,
      "ώ": 611,
      "ϐ": 612,
      "ϑ": 613,
      "ϒ": 614,
      "ϕ": 615,
      "ϙ": 616,
      "ϛ": 617,
      "Ϝ": 618,
      "ϝ": 619,
      "ϡ": 620,
      "Ϣ": 621,
      "ϯ": 622,
      "ϲ": 623,
      "ϵ": 624,
      "ϸ": 625,
      "Ϲ": 626,
      "ϻ": 627,
      "Ё": 628,
      "Ђ": 629,
      "Є": 630,
      "Ѕ": 631,
      "І": 632,
      "Ї": 633,
      "Ј": 634,
      "Љ": 635,
      "Њ": 636,
      "Ћ": 637,
      "Ќ": 638,
      "Ѝ": 639,
      "Ў": 640,
      "Џ": 641,
      "А": 642,
      "Б": 643,
      "В": 644,
      "Г": 645,
      "Д": 646,
      "Е": 647,
      "Ж": 648,
      "З": 649,
      "И": 650,
      "Й": 651,
      "К": 652,
      "Л": 653,
      "М": 654,
      "Н": 655,
      "О": 656,
      "П": 657,
      "Р": 658,
      "С": 659,
      "Т": 660,
      "У": 661,
      "Ф": 662,
      "Х": 663,
      "Ц": 664,
      "Ч": 665,
      "Ш": 666,
      "Щ": 667,
      "Ъ": 668,
      "Ы": 669,
      "Ь": 670,
      "Э": 671,
      "Ю": 672,
      "Я": 673,
      "а": 674,
      "б": 675,
      "в": 676,
      "г": 677,
      "д": 678,
      "е": 679,
      "ж": 680,
      "з": 681,
      "и": 682,
      "й": 683,
      "к": 684,
      "л": 685,
      "м": 686,
      "н": 687,
      "о": 688,
      "п": 689,
      "р": 690,
      "с": 691,
      "т": 692,
      "у": 693,
      "ф": 694,
      "х": 695,
      "ц": 696,
      "ч": 697,
      "ш": 698,
      "щ": 699,
      "ъ": 700,
      "ы": 701,
      "ь": 702,
      "э": 703,
      "ю": 704,
      "я": 705,
      "ё": 706,
      "ђ": 707,
      "ѓ": 708,
      "є": 709,
      "ѕ": 710,
      "і": 711,
      "ї": 712,
      "ј": 713,
      "љ": 714,
      "њ": 715,
      "ћ": 716,
      "ќ": 717,
      "ѝ": 718,
      "ў": 719,
      "џ": 720,
      "Ѣ": 721,
      "ѣ": 722,
      "Ѥ": 723,
      "ѥ": 724,
      "Ѧ": 725,
      "ѧ": 726,
      "ѫ": 727,
      "Ѳ": 728,
      "ѳ": 729,
      "ҁ": 730,
      "Ҋ": 731,
      "ҋ": 732,
      "Ғ": 733,
      "ғ": 734,
      "җ": 735,
      "Ҙ": 736,
      "ҙ": 737,
      "Қ": 738,
      "қ": 739,
      "ҝ": 740,
      "ҡ": 741,
      "ң": 742,
      "Ҥ": 743,
      "ҧ": 744,
      "Ү": 745,
      "ү": 746,
      "Ұ": 747,
      "ұ": 748,
      "ҳ": 749,
      "Ҷ": 750,
      "ҷ": 751,
      "Һ": 752,
      "һ": 753,
      "Ҿ": 754,
      "Ӏ": 755,
      "Ӓ": 756,
      "ӓ": 757,
      "ӕ": 758,
      "Ә": 759,
      "ә": 760,
      "ӛ": 761,
      "Ӥ": 762,
      "ӥ": 763,
      "Ӧ": 764,
      "Ө": 765,
      "ө": 766,
      "Ӫ": 767,
      "Ӱ": 768,
      "ӱ": 769,
      "Ӳ": 770,
      "ӳ": 771,
      "Ӷ": 772,
      "ӷ": 773,
      "ӹ": 774,
      "ӽ": 775,
      "Ԁ": 776,
      "ԁ": 777,
      "Ԇ": 778,
      "ԇ": 779,
      "Ԏ": 780,
      "ԏ": 781,
      "Ԑ": 782,
      "Ա": 783,
      "Բ": 784,
      "Գ": 785,
      "Դ": 786,
      "Ե": 787,
      "Զ": 788,
      "Է": 789,
      "Ը": 790,
      "Թ": 791,
      "Ժ": 792,
      "Ի": 793,
      "Լ": 794,
      "Խ": 795,
      "Ծ": 796,
      "Կ": 797,
      "Հ": 798,
      "Ձ": 799,
      "Ղ": 800,
      "Մ": 801,
      "Յ": 802,
      "Ն": 803,
      "Շ": 804,
      "Ո": 805,
      "Չ": 806,
      "Պ": 807,
      "Ջ": 808,
      "Ռ": 809,
      "Ս": 810,
      "Վ": 811,
      "Տ": 812,
      "Ց": 813,
      "Փ": 814,
      "Ք": 815,
      "Օ": 816,
      "՛": 817,
      "՜": 818,
      "՝": 819,
      "՞": 820,
      "ա": 821,
      "բ": 822,
      "գ": 823,
      "դ": 824,
      "ե": 825,
      "զ": 826,
      "է": 827,
      "ը": 828,
      "թ": 829,
      "ժ": 830,
      "ի": 831,
      "լ": 832,
      "խ": 833,
      "ծ": 834,
      "կ": 835,
      "հ": 836,
      "ձ": 837,
      "ղ": 838,
      "ճ": 839,
      "մ": 840,
      "յ": 841,
      "ն": 842,
      "շ": 843,
      "ո": 844,
      "չ": 845,
      "պ": 846,
      "ջ": 847,
      "ռ": 848,
      "ս": 849,
      "վ": 850,
      "տ": 851,
      "ր": 852,
      "ց": 853,
      "ւ": 854,
      "փ": 855,
      "ք": 856,
      "օ": 857,
      "ֆ": 858,
      "և": 859,
      "։": 860,
      "֍": 861,
      "֎": 862,
      "֏": 863,
      "֙": 864,
      "֜": 865,
      "֣": 866,
      "֫": 867,
      "ְ": 868,
      "ֱ": 869,
      "ֲ": 870,
      "ֳ": 871,
      "ִ": 872,
      "ֵ": 873,
      "ֶ": 874,
      "ַ": 875,
      "ָ": 876,
      "ֹ": 877,
      "ֻ": 878,
      "ּ": 879,
      "ֽ": 880,
      "־": 881,
      "ֿ": 882,
      "ׁ": 883,
      "ׂ": 884,
      "׃": 885,
      "א": 886,
      "ב": 887,
      "ג": 888,
      "ד": 889,
      "ה": 890,
      "ו": 891,
      "ז": 892,
      "ח": 893,
      "ט": 894,
      "י": 895,
      "ך": 896,
      "כ": 897,
      "ל": 898,
      "ם": 899,
      "מ": 900,
      "ן": 901,
      "נ": 902,
      "ס": 903,
      "ע": 904,
      "ף": 905,
      "פ": 906,
      "ץ": 907,
      "צ": 908,
      "ק": 909,
      "ר": 910,
      "ש": 911,
      "ת": 912,
      "ױ": 913,
      "ײ": 914,
      "׳": 915,
      "״": 916,
      "،": 917,
      "ؔ": 918,
      "ؚ": 919,
      "ء": 920,
      "آ": 921,
      "أ": 922,
      "ؤ": 923,
      "إ": 924,
      "ئ": 925,
      "ا": 926,
      "ب": 927,
      "ة": 928,
      "ت": 929,
      "ث": 930,
      "ج": 931,
      "ح": 932,
      "خ": 933,
      "د": 934,
      "ذ": 935,
      "ر": 936,
      "ز": 937,
      "س": 938,
      "ش": 939,
      "ص": 940,
      "ض": 941,
      "ط": 942,
      "ظ": 943,
      "ع": 944,
      "غ": 945,
      "ـ": 946,
      "ف": 947,
      "ق": 948,
      "ك": 949,
      "ل": 950,
      "م": 951,
      "ن": 952,
      "ه": 953,
      "و": 954,
      "ى": 955,
      "ي": 956,
      "ً": 957,
      "ٌ": 958,
      "ٍ": 959,
      "َ": 960,
      "ُ": 961,
      "ِ": 962,
      "ّ": 963,
      "ْ": 964,
      "١": 965,
      "ٰ": 966,
      "ٱ": 967,
      "ٹ": 968,
      "ټ": 969,
      "پ": 970,
      "ڃ": 971,
      "ڄ": 972,
      "چ": 973,
      "ڇ": 974,
      "ڈ": 975,
      "ڑ": 976,
      "ڕ": 977,
      "ږ": 978,
      "ژ": 979,
      "ڠ": 980,
      "ڢ": 981,
      "ڤ": 982,
      "ک": 983,
      "ڭ": 984,
      "گ": 985,
      "ڵ": 986,
      "ں": 987,
      "ھ": 988,
      "ڿ": 989,
      "ہ": 990,
      "ۂ": 991,
      "ۆ": 992,
      "ۇ": 993,
      "ۈ": 994,
      "ۋ": 995,
      "ی": 996,
      "ێ": 997,
      "ۏ": 998,
      "ې": 999,
      "ے": 1000,
      "ۓ": 1001,
      "۔": 1002,
      "ە": 1003,
      "ۢ": 1004,
      "ۤ": 1005,
      "ۥ": 1006,
      "۲": 1007,
      "۵": 1008,
      "۸": 1009,
      "ܐ": 1010,
      "ܒ": 1011,
      "ܓ": 1012,
      "ܕ": 1013,
      "ܘ": 1014,
      "ܙ": 1015,
      "ܚ": 1016,
      "ܝ": 1017,
      "ܟ": 1018,
      "ܠ": 1019,
      "ܡ": 1020,
      "ܢ": 1021,
      "ܣ": 1022,
      "ܥ": 1023,
      "ܦ": 1024,
      "ܩ": 1025,
      "ܪ": 1026,
      "ܫ": 1027,
      "ܬ": 1028,
      "ܶ": 1029,
      "ܺ": 1030,
      "ܽ": 1031,
      "ݍ": 1032,
      "ݎ": 1033,
      "ݏ": 1034,
      "ݢ": 1035,
      "ހ": 1036,
      "ނ": 1037,
      "ރ": 1038,
      "ބ": 1039,
      "ޅ": 1040,
      "އ": 1041,
      "ވ": 1042,
      "މ": 1043,
      "ދ": 1044,
      "ތ": 1045,
      "ލ": 1046,
      "ގ": 1047,
      "ޤ": 1048,
      "ަ": 1049,
      "ާ": 1050,
      "ި": 1051,
      "ީ": 1052,
      "ު": 1053,
      "ޫ": 1054,
      "ެ": 1055,
      "ޮ": 1056,
      "ް": 1057,
      "ߊ": 1058,
      "ߋ": 1059,
      "ߌ": 1060,
      "ߖ": 1061,
      "ߘ": 1062,
      "ߞ": 1063,
      "ߡ": 1064,
      "ߣ": 1065,
      "ࡀ": 1066,
      "ࡅ": 1067,
      "ࡉ": 1068,
      "ࡍ": 1069,
      "ࡓ": 1070,
      "ࡕ": 1071,
      "ࢢ": 1072,
      "ँ": 1073,
      "ं": 1074,
      "ः": 1075,
      "अ": 1076,
      "आ": 1077,
      "इ": 1078,
      "ई": 1079,
      "उ": 1080,
      "ऊ": 1081,
      "ऋ": 1082,
      "ए": 1083,
      "ऑ": 1084,
      "क": 1085,
      "ख": 1086,
      "ग": 1087,
      "घ": 1088,
      "ङ": 1089,
      "च": 1090,
      "छ": 1091,
      "ज": 1092,
      "झ": 1093,
      "ञ": 1094,
      "ट": 1095,
      "ठ": 1096,
      "ड": 1097,
      "ढ": 1098,
      "ण": 1099,
      "त": 1100,
      "थ": 1101,
      "द": 1102,
      "ध": 1103,
      "न": 1104,
      "प": 1105,
      "फ": 1106,
      "ब": 1107,
      "भ": 1108,
      "म": 1109,
      "य": 1110,
      "र": 1111,
      "ल": 1112,
      "ळ": 1113,
      "व": 1114,
      "श": 1115,
      "ष": 1116,
      "स": 1117,
      "ह": 1118,
      "़": 1119,
      "ा": 1120,
      "ि": 1121,
      "ी": 1122,
      "ु": 1123,
      "ू": 1124,
      "ृ": 1125,
      "े": 1126,
      "ै": 1127,
      "ो": 1128,
      "ौ": 1129,
      "्": 1130,
      "ॐ": 1131,
      "।": 1132,
      "ঁ": 1133,
      "ং": 1134,
      "অ": 1135,
      "আ": 1136,
      "ই": 1137,
      "উ": 1138,
      "ও": 1139,
      "ক": 1140,
      "খ": 1141,
      "গ": 1142,
      "ঘ": 1143,
      "ঙ": 1144,
      "চ": 1145,
      "ছ": 1146,
      "জ": 1147,
      "ঝ": 1148,
      "ঞ": 1149,
      "ট": 1150,
      "ঠ": 1151,
      "ড": 1152,
      "ঢ": 1153,
      "ণ": 1154,
      "ত": 1155,
      "থ": 1156,
      "দ": 1157,
      "ধ": 1158,
      "ন": 1159,
      "প": 1160,
      "ফ": 1161,
      "ব": 1162,
      "ভ": 1163,
      "ম": 1164,
      "য": 1165,
      "র": 1166,
      "ল": 1167,
      "শ": 1168,
      "ষ": 1169,
      "স": 1170,
      "হ": 1171,
      "়": 1172,
      "া": 1173,
      "ি": 1174,
      "ী": 1175,
      "ু": 1176,
      "ূ": 1177,
      "ৃ": 1178,
      "ে": 1179,
      "ৈ": 1180,
      "ো": 1181,
      "্": 1182,
      "ৎ": 1183,
      "ৰ": 1184,
      "ৱ": 1185,
      "৳": 1186,
      "ਂ": 1187,
      "ਅ": 1188,
      "ਆ": 1189,
      "ਇ": 1190,
      "ਐ": 1191,
      "ਕ": 1192,
      "ਖ": 1193,
      "ਗ": 1194,
      "ਘ": 1195,
      "ਙ": 1196,
      "ਚ": 1197,
      "ਜ": 1198,
      "ਝ": 1199,
      "ਟ": 1200,
      "ਠ": 1201,
      "ਡ": 1202,
      "ਤ": 1203,
      "ਦ": 1204,
      "ਧ": 1205,
      "ਨ": 1206,
      "ਪ": 1207,
      "ਫ": 1208,
      "ਬ": 1209,
      "ਭ": 1210,
      "ਮ": 1211,
      "ਰ": 1212,
      "ਲ": 1213,
      "ਵ": 1214,
      "ਸ": 1215,
      "ਹ": 1216,
      "਼": 1217,
      "ਾ": 1218,
      "ਿ": 1219,
      "ੀ": 1220,
      "ੁ": 1221,
      "ੂ": 1222,
      "ੇ": 1223,
      "ੈ": 1224,
      "ੋ": 1225,
      "ੰ": 1226,
      "ੱ": 1227,
      "ં": 1228,
      "અ": 1229,
      "આ": 1230,
      "ક": 1231,
      "ગ": 1232,
      "ઙ": 1233,
      "જ": 1234,
      "ટ": 1235,
      "ઠ": 1236,
      "ડ": 1237,
      "ણ": 1238,
      "દ": 1239,
      "ધ": 1240,
      "ન": 1241,
      "પ": 1242,
      "બ": 1243,
      "મ": 1244,
      "ય": 1245,
      "ર": 1246,
      "લ": 1247,
      "ળ": 1248,
      "વ": 1249,
      "સ": 1250,
      "હ": 1251,
      "ા": 1252,
      "િ": 1253,
      "ી": 1254,
      "ુ": 1255,
      "ો": 1256,
      "્": 1257,
      "କ": 1258,
      "ଘ": 1259,
      "ଙ": 1260,
      "ଚ": 1261,
      "ଜ": 1262,
      "ଡ": 1263,
      "ଦ": 1264,
      "ନ": 1265,
      "ପ": 1266,
      "ବ": 1267,
      "ଯ": 1268,
      "ର": 1269,
      "ଲ": 1270,
      "ଳ": 1271,
      "ସ": 1272,
      "ହ": 1273,
      "଼": 1274,
      "ା": 1275,
      "ି": 1276,
      "ୁ": 1277,
      "େ": 1278,
      "ୋ": 1279,
      "୍": 1280,
      "அ": 1281,
      "ஆ": 1282,
      "ஐ": 1283,
      "க": 1284,
      "ங": 1285,
      "ச": 1286,
      "ஜ": 1287,
      "ஞ": 1288,
      "ட": 1289,
      "ண": 1290,
      "த": 1291,
      "ந": 1292,
      "ன": 1293,
      "ப": 1294,
      "ம": 1295,
      "ய": 1296,
      "ர": 1297,
      "ற": 1298,
      "ல": 1299,
      "ள": 1300,
      "ழ": 1301,
      "வ": 1302,
      "ஷ": 1303,
      "ஸ": 1304,
      "ஹ": 1305,
      "ா": 1306,
      "ி": 1307,
      "ீ": 1308,
      "ு": 1309,
      "ூ": 1310,
      "ெ": 1311,
      "ே": 1312,
      "ை": 1313,
      "ொ": 1314,
      "ோ": 1315,
      "்": 1316,
      "ం": 1317,
      "అ": 1318,
      "ఆ": 1319,
      "క": 1320,
      "ఖ": 1321,
      "గ": 1322,
      "ఙ": 1323,
      "జ": 1324,
      "ట": 1325,
      "డ": 1326,
      "ణ": 1327,
      "త": 1328,
      "ద": 1329,
      "ధ": 1330,
      "న": 1331,
      "ప": 1332,
      "బ": 1333,
      "మ": 1334,
      "య": 1335,
      "ర": 1336,
      "ల": 1337,
      "వ": 1338,
      "శ": 1339,
      "ష": 1340,
      "స": 1341,
      "హ": 1342,
      "ా": 1343,
      "ి": 1344,
      "ీ": 1345,
      "ు": 1346,
      "ూ": 1347,
      "ె": 1348,
      "ే": 1349,
      "ొ": 1350,
      "్": 1351,
      "ಂ": 1352,
      "ಅ": 1353,
      "ಊ": 1354,
      "ಏ": 1355,
      "ಕ": 1356,
      "ಖ": 1357,
      "ಗ": 1358,
      "ಙ": 1359,
      "ಚ": 1360,
      "ಜ": 1361,
      "ಟ": 1362,
      "ಡ": 1363,
      "ಣ": 1364,
      "ತ": 1365,
      "ದ": 1366,
      "ಧ": 1367,
      "ನ": 1368,
      "ಪ": 1369,
      "ಫ": 1370,
      "ಬ": 1371,
      "ಮ": 1372,
      "ಯ": 1373,
      "ರ": 1374,
      "ಲ": 1375,
      "ಳ": 1376,
      "ವ": 1377,
      "ಶ": 1378,
      "ಸ": 1379,
      "ಹ": 1380,
      "ಾ": 1381,
      "ಿ": 1382,
      "ೀ": 1383,
      "ು": 1384,
      "ೂ": 1385,
      "ೆ": 1386,
      "ೇ": 1387,
      "ೊ": 1388,
      "ೋ": 1389,
      "್": 1390,
      "ೖ": 1391,
      "ം": 1392,
      "അ": 1393,
      "ആ": 1394,
      "ഇ": 1395,
      "ഉ": 1396,
      "എ": 1397,
      "ഐ": 1398,
      "ക": 1399,
      "ഗ": 1400,
      "ങ": 1401,
      "ച": 1402,
      "ജ": 1403,
      "ഞ": 1404,
      "ട": 1405,
      "ഡ": 1406,
      "ണ": 1407,
      "ത": 1408,
      "ദ": 1409,
      "ധ": 1410,
      "ന": 1411,
      "പ": 1412,
      "ഫ": 1413,
      "ബ": 1414,
      "മ": 1415,
      "യ": 1416,
      "ര": 1417,
      "റ": 1418,
      "ല": 1419,
      "ള": 1420,
      "ഴ": 1421,
      "വ": 1422,
      "ശ": 1423,
      "ഷ": 1424,
      "സ": 1425,
      "ാ": 1426,
      "ി": 1427,
      "ീ": 1428,
      "ു": 1429,
      "ൂ": 1430,
      "ൃ": 1431,
      "െ": 1432,
      "േ": 1433,
      "ൈ": 1434,
      "ൊ": 1435,
      "ോ": 1436,
      "്": 1437,
      "ൺ": 1438,
      "ൻ": 1439,
      "ർ": 1440,
      "ൽ": 1441,
      "ൾ": 1442,
      "ං": 1443,
      "ක": 1444,
      "ඛ": 1445,
      "ග": 1446,
      "ඞ": 1447,
      "ඟ": 1448,
      "ච": 1449,
      "ත": 1450,
      "ද": 1451,
      "ධ": 1452,
      "න": 1453,
      "ඳ": 1454,
      "ප": 1455,
      "ම": 1456,
      "ය": 1457,
      "ර": 1458,
      "ල": 1459,
      "ව": 1460,
      "ශ": 1461,
      "ස": 1462,
      "හ": 1463,
      "ළ": 1464,
      "්": 1465,
      "ා": 1466,
      "ි": 1467,
      "ු": 1468,
      "ො": 1469,
      "ก": 1470,
      "ข": 1471,
      "ค": 1472,
      "ฆ": 1473,
      "ง": 1474,
      "จ": 1475,
      "ฉ": 1476,
      "ช": 1477,
      "ซ": 1478,
      "ญ": 1479,
      "ฎ": 1480,
      "ฐ": 1481,
      "ฑ": 1482,
      "ฒ": 1483,
      "ณ": 1484,
      "ด": 1485,
      "ต": 1486,
      "ถ": 1487,
      "ท": 1488,
      "ธ": 1489,
      "น": 1490,
      "บ": 1491,
      "ป": 1492,
      "ผ": 1493,
      "ฝ": 1494,
      "พ": 1495,
      "ฟ": 1496,
      "ภ": 1497,
      "ม": 1498,
      "ย": 1499,
      "ร": 1500,
      "ฤ": 1501,
      "ล": 1502,
      "ว": 1503,
      "ศ": 1504,
      "ษ": 1505,
      "ส": 1506,
      "ห": 1507,
      "อ": 1508,
      "ฮ": 1509,
      "ะ": 1510,
      "ั": 1511,
      "า": 1512,
      "ำ": 1513,
      "ิ": 1514,
      "ี": 1515,
      "ึ": 1516,
      "ื": 1517,
      "ุ": 1518,
      "ู": 1519,
      "฿": 1520,
      "เ": 1521,
      "แ": 1522,
      "โ": 1523,
      "ใ": 1524,
      "ไ": 1525,
      "ๆ": 1526,
      "็": 1527,
      "่": 1528,
      "้": 1529,
      "๊": 1530,
      "๋": 1531,
      "์": 1532,
      "๑": 1533,
      "๓": 1534,
      "๘": 1535,
      "ກ": 1536,
      "ຂ": 1537,
      "ງ": 1538,
      "ຈ": 1539,
      "ຊ": 1540,
      "ດ": 1541,
      "ຕ": 1542,
      "ທ": 1543,
      "ນ": 1544,
      "ບ": 1545,
      "ປ": 1546,
      "ຜ": 1547,
      "ພ": 1548,
      "ມ": 1549,
      "ລ": 1550,
      "ວ": 1551,
      "ສ": 1552,
      "ຫ": 1553,
      "ອ": 1554,
      "ະ": 1555,
      "ັ": 1556,
      "າ": 1557,
      "ຳ": 1558,
      "ິ": 1559,
      "ີ": 1560,
      "ື": 1561,
      "ຸ": 1562,
      "ົ": 1563,
      "ເ": 1564,
      "ແ": 1565,
      "ໃ": 1566,
      "ໄ": 1567,
      "່": 1568,
      "້": 1569,
      "ໜ": 1570,
      "ༀ": 1571,
      "་": 1572,
      "༌": 1573,
      "།": 1574,
      "ཀ": 1575,
      "ཁ": 1576,
      "ག": 1577,
      "ང": 1578,
      "ཅ": 1579,
      "ཆ": 1580,
      "ཎ": 1581,
      "ཏ": 1582,
      "ཐ": 1583,
      "ད": 1584,
      "ན": 1585,
      "པ": 1586,
      "ཕ": 1587,
      "བ": 1588,
      "མ": 1589,
      "ཚ": 1590,
      "ཛ": 1591,
      "ཝ": 1592,
      "ཞ": 1593,
      "ཟ": 1594,
      "འ": 1595,
      "ཡ": 1596,
      "ར": 1597,
      "ལ": 1598,
      "ཤ": 1599,
      "ས": 1600,
      "ཧ": 1601,
      "ཨ": 1602,
      "ཱ": 1603,
      "ི": 1604,
      "ུ": 1605,
      "ེ": 1606,
      "ོ": 1607,
      "ཿ": 1608,
      "ྃ": 1609,
      "ྐ": 1610,
      "ྒ": 1611,
      "ྗ": 1612,
      "ྙ": 1613,
      "ྟ": 1614,
      "ྡ": 1615,
      "ྣ": 1616,
      "ྤ": 1617,
      "ྨ": 1618,
      "ྩ": 1619,
      "ྫ": 1620,
      "ྭ": 1621,
      "ྱ": 1622,
      "ྲ": 1623,
      "ླ": 1624,
      "ྷ": 1625,
      "က": 1626,
      "ခ": 1627,
      "ဂ": 1628,
      "င": 1629,
      "စ": 1630,
      "ဆ": 1631,
      "ဇ": 1632,
      "ဉ": 1633,
      "ည": 1634,
      "တ": 1635,
      "ထ": 1636,
      "ဒ": 1637,
      "န": 1638,
      "ပ": 1639,
      "ဖ": 1640,
      "ဘ": 1641,
      "မ": 1642,
      "ယ": 1643,
      "ရ": 1644,
      "လ": 1645,
      "ဝ": 1646,
      "သ": 1647,
      "ဟ": 1648,
      "အ": 1649,
      "ါ": 1650,
      "ာ": 1651,
      "ိ": 1652,
      "ီ": 1653,
      "ု": 1654,
      "ူ": 1655,
      "ေ": 1656,
      "ဲ": 1657,
      "ံ": 1658,
      "့": 1659,
      "း": 1660,
      "္": 1661,
      "်": 1662,
      "ျ": 1663,
      "ြ": 1664,
      "ွ": 1665,
      "ှ": 1666,
      "ა": 1667,
      "ბ": 1668,
      "გ": 1669,
      "დ": 1670,
      "ე": 1671,
      "ვ": 1672,
      "ზ": 1673,
      "თ": 1674,
      "ი": 1675,
      "კ": 1676,
      "ლ": 1677,
      "მ": 1678,
      "ნ": 1679,
      "ო": 1680,
      "პ": 1681,
      "რ": 1682,
      "ს": 1683,
      "ტ": 1684,
      "უ": 1685,
      "ფ": 1686,
      "ქ": 1687,
      "ღ": 1688,
      "ყ": 1689,
      "შ": 1690,
      "ჩ": 1691,
      "ც": 1692,
      "ძ": 1693,
      "წ": 1694,
      "ჭ": 1695,
      "ხ": 1696,
      "ჯ": 1697,
      "ჱ": 1698,
      "ჳ": 1699,
      "ሁ": 1700,
      "ህ": 1701,
      "ለ": 1702,
      "ሉ": 1703,
      "ላ": 1704,
      "ል": 1705,
      "ሐ": 1706,
      "መ": 1707,
      "ሙ": 1708,
      "ማ": 1709,
      "ም": 1710,
      "ሠ": 1711,
      "ሥ": 1712,
      "ረ": 1713,
      "ሩ": 1714,
      "ሬ": 1715,
      "ር": 1716,
      "ሰ": 1717,
      "ሲ": 1718,
      "ሳ": 1719,
      "ስ": 1720,
      "ቀ": 1721,
      "ቃ": 1722,
      "ቄ": 1723,
      "ቅ": 1724,
      "በ": 1725,
      "ባ": 1726,
      "ቤ": 1727,
      "ብ": 1728,
      "ተ": 1729,
      "ቱ": 1730,
      "ቲ": 1731,
      "ታ": 1732,
      "ና": 1733,
      "ን": 1734,
      "ኞ": 1735,
      "አ": 1736,
      "ኡ": 1737,
      "ኢ": 1738,
      "ኣ": 1739,
      "ኤ": 1740,
      "እ": 1741,
      "ኦ": 1742,
      "ኧ": 1743,
      "ከ": 1744,
      "ክ": 1745,
      "ወ": 1746,
      "ዊ": 1747,
      "ው": 1748,
      "ዐ": 1749,
      "ዕ": 1750,
      "ዘ": 1751,
      "ዝ": 1752,
      "የ": 1753,
      "ያ": 1754,
      "ይ": 1755,
      "ዮ": 1756,
      "ደ": 1757,
      "ዲ": 1758,
      "ዴ": 1759,
      "ጀ": 1760,
      "ጅ": 1761,
      "ገ": 1762,
      "ጌ": 1763,
      "ግ": 1764,
      "ጠ": 1765,
      "ጣ": 1766,
      "ጥ": 1767,
      "ጦ": 1768,
      "ጽ": 1769,
      "ፍ": 1770,
      "ፔ": 1771,
      "፡": 1772,
      "Ꭰ": 1773,
      "Ꭲ": 1774,
      "Ꭴ": 1775,
      "Ꭼ": 1776,
      "Ꮎ": 1777,
      "Ꮒ": 1778,
      "Ꮖ": 1779,
      "Ꮝ": 1780,
      "Ꮣ": 1781,
      "Ꮩ": 1782,
      "Ꮻ": 1783,
      "Ꮿ": 1784,
      "Ᏼ": 1785,
      "ᐃ": 1786,
      "ᐅ": 1787,
      "ᐊ": 1788,
      "ᐘ": 1789,
      "ᐢ": 1790,
      "ᐩ": 1791,
      "ᐱ": 1792,
      "ᐸ": 1793,
      "ᑌ": 1794,
      "ᑐ": 1795,
      "ᑭ": 1796,
      "ᑳ": 1797,
      "ᒃ": 1798,
      "ᒋ": 1799,
      "ᒡ": 1800,
      "ᒥ": 1801,
      "ᒪ": 1802,
      "ᒼ": 1803,
      "ᓀ": 1804,
      "ᓂ": 1805,
      "ᓗ": 1806,
      "ᓯ": 1807,
      "ᓰ": 1808,
      "ᓱ": 1809,
      "ᕄ": 1810,
      "ᕐ": 1811,
      "ᖁ": 1812,
      "ᖅ": 1813,
      "ᖕ": 1814,
      "ᚠ": 1815,
      "ᚢ": 1816,
      "ᚦ": 1817,
      "ᚩ": 1818,
      "ᚱ": 1819,
      "ᚳ": 1820,
      "ᛉ": 1821,
      "᛫": 1822,
      "᛬": 1823,
      "᛭": 1824,
      "ᛮ": 1825,
      "ᛯ": 1826,
      "ᛰ": 1827,
      "ᜌ": 1828,
      "ᜒ": 1829,
      "ᜓ": 1830,
      "᜔": 1831,
      "ក": 1832,
      "ខ": 1833,
      "គ": 1834,
      "ឃ": 1835,
      "ង": 1836,
      "ច": 1837,
      "ឆ": 1838,
      "ជ": 1839,
      "ឈ": 1840,
      "ញ": 1841,
      "ដ": 1842,
      "ឋ": 1843,
      "ឌ": 1844,
      "ណ": 1845,
      "ត": 1846,
      "ថ": 1847,
      "ទ": 1848,
      "ធ": 1849,
      "ន": 1850,
      "ប": 1851,
      "ផ": 1852,
      "ព": 1853,
      "ភ": 1854,
      "ម": 1855,
      "យ": 1856,
      "រ": 1857,
      "ល": 1858,
      "វ": 1859,
      "ស": 1860,
      "ហ": 1861,
      "ឡ": 1862,
      "អ": 1863,
      "ឧ": 1864,
      "ឬ": 1865,
      "ឯ": 1866,
      "ឱ": 1867,
      "ា": 1868,
      "ិ": 1869,
      "ី": 1870,
      "ឹ": 1871,
      "ឺ": 1872,
      "ុ": 1873,
      "ូ": 1874,
      "ួ": 1875,
      "ើ": 1876,
      "ឿ": 1877,
      "ៀ": 1878,
      "េ": 1879,
      "ែ": 1880,
      "ៃ": 1881,
      "ោ": 1882,
      "ៅ": 1883,
      "ំ": 1884,
      "ះ": 1885,
      "៉": 1886,
      "៊": 1887,
      "់": 1888,
      "៌": 1889,
      "៍": 1890,
      "៏": 1891,
      "័": 1892,
      "្": 1893,
      "៖": 1894,
      "៛": 1895,
      "៦": 1896,
      "᠋": 1897,
      "ᠠ": 1898,
      "ᠡ": 1899,
      "ᠢ": 1900,
      "ᠣ": 1901,
      "ᠤ": 1902,
      "ᠥ": 1903,
      "ᠦ": 1904,
      "ᠧ": 1905,
      "ᠨ": 1906,
      "ᠩ": 1907,
      "ᠪ": 1908,
      "ᠬ": 1909,
      "ᠭ": 1910,
      "ᠮ": 1911,
      "ᠯ": 1912,
      "ᠰ": 1913,
      "ᠲ": 1914,
      "ᠳ": 1915,
      "ᠵ": 1916,
      "ᠶ": 1917,
      "ᠷ": 1918,
      "ᡧ": 1919,
      "ᡳ": 1920,
      "ᡴ": 1921,
      "ᮀ": 1922,
      "ᮅ": 1923,
      "ᮒ": 1924,
      "ᮔ": 1925,
      "ᮘ": 1926,
      "ᮛ": 1927,
      "ᮨ": 1928,
      "᮪": 1929,
      "ᴀ": 1930,
      "ᴚ": 1931,
      "ᴜ": 1932,
      "ᴢ": 1933,
      "ᴬ": 1934,
      "ᴰ": 1935,
      "ᵃ": 1936,
      "ᵉ": 1937,
      "ᵊ": 1938,
      "ᵏ": 1939,
      "ᵐ": 1940,
      "ᵑ": 1941,
      "ᵒ": 1942,
      "ᵘ": 1943,
      "ᵛ": 1944,
      "ᵮ": 1945,
      "ᵹ": 1946,
      "ᵻ": 1947,
      "ᵾ": 1948,
      "ᶜ": 1949,
      "ḁ": 1950,
      "ḃ": 1951,
      "Ḇ": 1952,
      "ḇ": 1953,
      "Ḍ": 1954,
      "ḍ": 1955,
      "Ḏ": 1956,
      "ḏ": 1957,
      "ḑ": 1958,
      "Ḓ": 1959,
      "ḓ": 1960,
      "ḗ": 1961,
      "Ḙ": 1962,
      "ḙ": 1963,
      "ḡ": 1964,
      "Ḣ": 1965,
      "Ḥ": 1966,
      "ḥ": 1967,
      "Ḩ": 1968,
      "ḩ": 1969,
      "Ḫ": 1970,
      "ḫ": 1971,
      "ḭ": 1972,
      "ḱ": 1973,
      "ḳ": 1974,
      "Ḵ": 1975,
      "ḵ": 1976,
      "Ḷ": 1977,
      "ḷ": 1978,
      "ḻ": 1979,
      "Ḽ": 1980,
      "ḽ": 1981,
      "ḿ": 1982,
      "Ṁ": 1983,
      "ṁ": 1984,
      "ṃ": 1985,
      "Ṅ": 1986,
      "ṅ": 1987,
      "ṇ": 1988,
      "ṉ": 1989,
      "Ṋ": 1990,
      "ṋ": 1991,
      "ṍ": 1992,
      "ṑ": 1993,
      "ṓ": 1994,
      "ṕ": 1995,
      "Ṛ": 1996,
      "ṛ": 1997,
      "ṟ": 1998,
      "Ṡ": 1999,
      "ṡ": 2000,
      "Ṣ": 2001,
      "ṣ": 2002,
      "ṫ": 2003,
      "Ṭ": 2004,
      "ṭ": 2005,
      "Ṯ": 2006,
      "ṯ": 2007,
      "Ṱ": 2008,
      "ṱ": 2009,
      "ṳ": 2010,
      "ṵ": 2011,
      "Ṷ": 2012,
      "ṷ": 2013,
      "ṹ": 2014,
      "ṽ": 2015,
      "Ẁ": 2016,
      "ẁ": 2017,
      "ẃ": 2018,
      "Ẋ": 2019,
      "ẍ": 2020,
      "Ẓ": 2021,
      "ẓ": 2022,
      "ẖ": 2023,
      "ẗ": 2024,
      "ẞ": 2025,
      "ẟ": 2026,
      "ạ": 2027,
      "ả": 2028,
      "ấ": 2029,
      "ầ": 2030,
      "ẩ": 2031,
      "ẫ": 2032,
      "ậ": 2033,
      "ắ": 2034,
      "ằ": 2035,
      "ẳ": 2036,
      "ẵ": 2037,
      "ặ": 2038,
      "Ẹ": 2039,
      "ẹ": 2040,
      "ẻ": 2041,
      "Ẽ": 2042,
      "ẽ": 2043,
      "ế": 2044,
      "ề": 2045,
      "ể": 2046,
      "ễ": 2047,
      "ệ": 2048,
      "ỉ": 2049,
      "ị": 2050,
      "ọ": 2051,
      "ỏ": 2052,
      "Ố": 2053,
      "ố": 2054,
      "ồ": 2055,
      "ổ": 2056,
      "ỗ": 2057,
      "ộ": 2058,
      "ớ": 2059,
      "ờ": 2060,
      "ở": 2061,
      "ỡ": 2062,
      "ợ": 2063,
      "ụ": 2064,
      "Ủ": 2065,
      "ủ": 2066,
      "ứ": 2067,
      "ừ": 2068,
      "ử": 2069,
      "ữ": 2070,
      "ự": 2071,
      "ỳ": 2072,
      "ỵ": 2073,
      "ỷ": 2074,
      "Ỹ": 2075,
      "ỹ": 2076,
      "ἀ": 2077,
      "ἁ": 2078,
      "ἂ": 2079,
      "ἄ": 2080,
      "ἅ": 2081,
      "Ἀ": 2082,
      "Ἁ": 2083,
      "Ἂ": 2084,
      "Ἃ": 2085,
      "Ἄ": 2086,
      "Ἅ": 2087,
      "ἐ": 2088,
      "ἑ": 2089,
      "ἒ": 2090,
      "ἔ": 2091,
      "ἕ": 2092,
      "Ἐ": 2093,
      "Ἑ": 2094,
      "Ἓ": 2095,
      "Ἔ": 2096,
      "ἠ": 2097,
      "ἡ": 2098,
      "ἢ": 2099,
      "ἤ": 2100,
      "ἥ": 2101,
      "ἦ": 2102,
      "Ἠ": 2103,
      "Ἡ": 2104,
      "Ἣ": 2105,
      "Ἤ": 2106,
      "Ἥ": 2107,
      "ἰ": 2108,
      "ἱ": 2109,
      "ἲ": 2110,
      "ἳ": 2111,
      "ἴ": 2112,
      "ἵ": 2113,
      "ἶ": 2114,
      "ἷ": 2115,
      "Ἰ": 2116,
      "Ἱ": 2117,
      "Ἴ": 2118,
      "Ἵ": 2119,
      "ὀ": 2120,
      "ὁ": 2121,
      "ὃ": 2122,
      "ὄ": 2123,
      "ὅ": 2124,
      "Ὀ": 2125,
      "Ὁ": 2126,
      "Ὄ": 2127,
      "Ὅ": 2128,
      "ὐ": 2129,
      "ὑ": 2130,
      "ὔ": 2131,
      "ὕ": 2132,
      "ὖ": 2133,
      "Ὑ": 2134,
      "Ὕ": 2135,
      "ὠ": 2136,
      "ὡ": 2137,
      "ὣ": 2138,
      "ὤ": 2139,
      "Ὡ": 2140,
      "Ὦ": 2141,
      "ὰ": 2142,
      "ὲ": 2143,
      "ὴ": 2144,
      "ὶ": 2145,
      "ὸ": 2146,
      "ὺ": 2147,
      "ὼ": 2148,
      "ᾓ": 2149,
      "ᾰ": 2150,
      "ᾱ": 2151,
      "ᾶ": 2152,
      "ᾷ": 2153,
      "᾽": 2154,
      "ῃ": 2155,
      "ῄ": 2156,
      "ῆ": 2157,
      "ῇ": 2158,
      "ῑ": 2159,
      "ῖ": 2160,
      "ῤ": 2161,
      "ῥ": 2162,
      "ῦ": 2163,
      "Ῥ": 2164,
      "ῳ": 2165,
      "ῶ": 2166,
      "ῷ": 2167,
      "​": 2168,
      "‌": 2169,
      "‍": 2170,
      "‎": 2171,
      "‏": 2172,
      "‐": 2173,
      "‑": 2174,
      "‒": 2175,
      "–": 2176,
      "—": 2177,
      "―": 2178,
      "‖": 2179,
      "‘": 2180,
      "’": 2181,
      "‚": 2182,
      "‛": 2183,
      "“": 2184,
      "”": 2185,
      "„": 2186,
      "†": 2187,
      "‡": 2188,
      "•": 2189,
      "․": 2190,
      "…": 2191,
      "‧": 2192,
      "‪": 2193,
      "‫": 2194,
      "‬": 2195,
      "‰": 2196,
      "′": 2197,
      "″": 2198,
      "‹": 2199,
      "›": 2200,
      "※": 2201,
      "‿": 2202,
      "⁃": 2203,
      "⁄": 2204,
      "⁎": 2205,
      "⁠": 2206,
      "⁣": 2207,
      "⁰": 2208,
      "ⁱ": 2209,
      "⁴": 2210,
      "⁵": 2211,
      "⁶": 2212,
      "⁷": 2213,
      "⁸": 2214,
      "⁹": 2215,
      "⁺": 2216,
      "⁽": 2217,
      "⁾": 2218,
      "ⁿ": 2219,
      "₀": 2220,
      "₁": 2221,
      "₂": 2222,
      "₃": 2223,
      "₄": 2224,
      "₠": 2225,
      "₡": 2226,
      "₣": 2227,
      "₤": 2228,
      "₧": 2229,
      "₨": 2230,
      "₩": 2231,
      "₫": 2232,
      "€": 2233,
      "₱": 2234,
      "₲": 2235,
      "₴": 2236,
      "₵": 2237,
      "₹": 2238,
      "₽": 2239,
      "ℂ": 2240,
      "℃": 2241,
      "ℓ": 2242,
      "ℕ": 2243,
      "№": 2244,
      "℗": 2245,
      "ℙ": 2246,
      "ℚ": 2247,
      "ℝ": 2248,
      "™": 2249,
      "ℤ": 2250,
      "℮": 2251,
      "ℳ": 2252,
      "⅓": 2253,
      "⅔": 2254,
      "⅛": 2255,
      "⅜": 2256,
      "⅝": 2257,
      "⅞": 2258,
      "Ⅱ": 2259,
      "Ⅲ": 2260,
      "Ⅴ": 2261,
      "Ⅶ": 2262,
      "Ⅸ": 2263,
      "Ⅹ": 2264,
      "ↄ": 2265,
      "←": 2266,
      "↑": 2267,
      "→": 2268,
      "↓": 2269,
      "↔": 2270,
      "↗": 2271,
      "↦": 2272,
      "↵": 2273,
      "↹": 2274,
      "⇌": 2275,
      "⇒": 2276,
      "⇔": 2277,
      "∀": 2278,
      "∂": 2279,
      "∃": 2280,
      "∅": 2281,
      "∆": 2282,
      "∇": 2283,
      "∈": 2284,
      "∎": 2285,
      "∐": 2286,
      "∑": 2287,
      "−": 2288,
      "∗": 2289,
      "∙": 2290,
      "√": 2291,
      "∞": 2292,
      "∤": 2293,
      "∥": 2294,
      "∦": 2295,
      "∧": 2296,
      "∨": 2297,
      "∩": 2298,
      "∪": 2299,
      "∫": 2300,
      "∼": 2301,
      "∽": 2302,
      "≃": 2303,
      "≅": 2304,
      "≈": 2305,
      "≒": 2306,
      "≟": 2307,
      "≠": 2308,
      "≡": 2309,
      "≤": 2310,
      "≥": 2311,
      "≪": 2312,
      "≫": 2313,
      "⊂": 2314,
      "⊄": 2315,
      "⊆": 2316,
      "⊕": 2317,
      "⊖": 2318,
      "⊗": 2319,
      "⊙": 2320,
      "⋅": 2321,
      "⋕": 2322,
      "⌃": 2323,
      "⌊": 2324,
      "⌋": 2325,
      "⌘": 2326,
      "⌥": 2327,
      "①": 2328,
      "②": 2329,
      "③": 2330,
      "④": 2331,
      "⑤": 2332,
      "⑥": 2333,
      "Ⓢ": 2334,
      "─": 2335,
      "│": 2336,
      "┌": 2337,
      "└": 2338,
      "├": 2339,
      "┤": 2340,
      "═": 2341,
      "╞": 2342,
      "█": 2343,
      "■": 2344,
      "□": 2345,
      "▪": 2346,
      "▬": 2347,
      "▲": 2348,
      "△": 2349,
      "▴": 2350,
      "▶": 2351,
      "▷": 2352,
      "▼": 2353,
      "◆": 2354,
      "◇": 2355,
      "◉": 2356,
      "○": 2357,
      "◌": 2358,
      "●": 2359,
      "◦": 2360,
      "◻": 2361,
      "☃": 2362,
      "★": 2363,
      "☆": 2364,
      "☉": 2365,
      "☠": 2366,
      "☧": 2367,
      "☮": 2368,
      "☽": 2369,
      "☾": 2370,
      "☿": 2371,
      "♀": 2372,
      "♂": 2373,
      "♃": 2374,
      "♄": 2375,
      "♅": 2376,
      "♉": 2377,
      "♌": 2378,
      "♕": 2379,
      "♠": 2380,
      "♡": 2381,
      "♣": 2382,
      "♥": 2383,
      "♦": 2384,
      "♩": 2385,
      "♪": 2386,
      "♭": 2387,
      "♮": 2388,
      "♯": 2389,
      "♳": 2390,
      "♴": 2391,
      "♵": 2392,
      "♶": 2393,
      "♷": 2394,
      "♸": 2395,
      "♹": 2396,
      "♺": 2397,
      "♼": 2398,
      "⚊": 2399,
      "⚋": 2400,
      "⚔": 2401,
      "⚭": 2402,
      "⚲": 2403,
      "⚳": 2404,
      "⚴": 2405,
      "⚵": 2406,
      "⚷": 2407,
      "⛢": 2408,
      "✔": 2409,
      "✝": 2410,
      "✞": 2411,
      "✨": 2412,
      "❌": 2413,
      "❐": 2414,
      "❤": 2415,
      "➕": 2416,
      "⟨": 2417,
      "⟩": 2418,
      "⫠": 2419,
      "⭐": 2420,
      "⮀": 2421,
      "⯉": 2422,
      "⯚": 2423,
      "⯰": 2424,
      "⯱": 2425,
      "Ɫ": 2426,
      "Ᵽ": 2427,
      "ⱪ": 2428,
      "Ɐ": 2429,
      "Ⲁ": 2430,
      "ⲁ": 2431,
      "ⲃ": 2432,
      "ⲇ": 2433,
      "ⲉ": 2434,
      "ⲏ": 2435,
      "Ⲑ": 2436,
      "ⲓ": 2437,
      "ⲗ": 2438,
      "ⲙ": 2439,
      "ⲛ": 2440,
      "ⲟ": 2441,
      "ⲡ": 2442,
      "ⲣ": 2443,
      "ⲥ": 2444,
      "ⲧ": 2445,
      "ⲩ": 2446,
      "ⲭ": 2447,
      "ⲱ": 2448,
      "ⴰ": 2449,
      "ⴱ": 2450,
      "ⴳ": 2451,
      "ⴵ": 2452,
      "ⴷ": 2453,
      "ⴻ": 2454,
      "ⴼ": 2455,
      "ⴽ": 2456,
      "ⴾ": 2457,
      "ⵃ": 2458,
      "ⵄ": 2459,
      "ⵈ": 2460,
      "ⵉ": 2461,
      "ⵍ": 2462,
      "ⵎ": 2463,
      "ⵏ": 2464,
      "ⵓ": 2465,
      "ⵔ": 2466,
      "ⵖ": 2467,
      "ⵙ": 2468,
      "ⵛ": 2469,
      "ⵜ": 2470,
      "ⵟ": 2471,
      "ⵡ": 2472,
      "ⵢ": 2473,
      "ⵣ": 2474,
      "⸙": 2475,
      "⸱": 2476,
      "⸸": 2477,
      "⺗": 2478,
      "、": 2479,
      "。": 2480,
      "々": 2481,
      "〇": 2482,
      "〈": 2483,
      "〉": 2484,
      "《": 2485,
      "》": 2486,
      "「": 2487,
      "」": 2488,
      "『": 2489,
      "』": 2490,
      "【": 2491,
      "】": 2492,
      "〒": 2493,
      "〜": 2494,
      "〝": 2495,
      "〟": 2496,
      "ぁ": 2497,
      "あ": 2498,
      "ぃ": 2499,
      "い": 2500,
      "ぅ": 2501,
      "う": 2502,
      "ぇ": 2503,
      "え": 2504,
      "ぉ": 2505,
      "お": 2506,
      "か": 2507,
      "が": 2508,
      "き": 2509,
      "ぎ": 2510,
      "く": 2511,
      "ぐ": 2512,
      "け": 2513,
      "げ": 2514,
      "こ": 2515,
      "ご": 2516,
      "さ": 2517,
      "ざ": 2518,
      "し": 2519,
      "じ": 2520,
      "す": 2521,
      "ず": 2522,
      "せ": 2523,
      "ぜ": 2524,
      "そ": 2525,
      "ぞ": 2526,
      "た": 2527,
      "だ": 2528,
      "ち": 2529,
      "ぢ": 2530,
      "っ": 2531,
      "つ": 2532,
      "づ": 2533,
      "て": 2534,
      "で": 2535,
      "と": 2536,
      "ど": 2537,
      "な": 2538,
      "に": 2539,
      "ぬ": 2540,
      "ね": 2541,
      "の": 2542,
      "は": 2543,
      "ば": 2544,
      "ぱ": 2545,
      "ひ": 2546,
      "び": 2547,
      "ぴ": 2548,
      "ふ": 2549,
      "ぶ": 2550,
      "ぷ": 2551,
      "へ": 2552,
      "べ": 2553,
      "ぺ": 2554,
      "ほ": 2555,
      "ぼ": 2556,
      "ぽ": 2557,
      "ま": 2558,
      "み": 2559,
      "む": 2560,
      "め": 2561,
      "も": 2562,
      "ゃ": 2563,
      "や": 2564,
      "ゅ": 2565,
      "ゆ": 2566,
      "ょ": 2567,
      "よ": 2568,
      "ら": 2569,
      "り": 2570,
      "る": 2571,
      "れ": 2572,
      "ろ": 2573,
      "ゎ": 2574,
      "わ": 2575,
      "ゐ": 2576,
      "ゑ": 2577,
      "を": 2578,
      "ん": 2579,
      "゚": 2580,
      "ゝ": 2581,
      "ゞ": 2582,
      "ァ": 2583,
      "ア": 2584,
      "ィ": 2585,
      "イ": 2586,
      "ゥ": 2587,
      "ウ": 2588,
      "ェ": 2589,
      "エ": 2590,
      "ォ": 2591,
      "オ": 2592,
      "カ": 2593,
      "ガ": 2594,
      "キ": 2595,
      "ギ": 2596,
      "ク": 2597,
      "グ": 2598,
      "ケ": 2599,
      "ゲ": 2600,
      "コ": 2601,
      "ゴ": 2602,
      "サ": 2603,
      "ザ": 2604,
      "シ": 2605,
      "ジ": 2606,
      "ス": 2607,
      "ズ": 2608,
      "セ": 2609,
      "ゼ": 2610,
      "ソ": 2611,
      "ゾ": 2612,
      "タ": 2613,
      "ダ": 2614,
      "チ": 2615,
      "ッ": 2616,
      "ツ": 2617,
      "ヅ": 2618,
      "テ": 2619,
      "デ": 2620,
      "ト": 2621,
      "ド": 2622,
      "ナ": 2623,
      "ニ": 2624,
      "ヌ": 2625,
      "ネ": 2626,
      "ノ": 2627,
      "ハ": 2628,
      "バ": 2629,
      "パ": 2630,
      "ヒ": 2631,
      "ビ": 2632,
      "ピ": 2633,
      "フ": 2634,
      "ブ": 2635,
      "プ": 2636,
      "ヘ": 2637,
      "ベ": 2638,
      "ペ": 2639,
      "ホ": 2640,
      "ボ": 2641,
      "ポ": 2642,
      "マ": 2643,
      "ミ": 2644,
      "ム": 2645,
      "メ": 2646,
      "モ": 2647,
      "ャ": 2648,
      "ヤ": 2649,
      "ュ": 2650,
      "ユ": 2651,
      "ョ": 2652,
      "ヨ": 2653,
      "ラ": 2654,
      "リ": 2655,
      "ル": 2656,
      "レ": 2657,
      "ロ": 2658,
      "ヮ": 2659,
      "ワ": 2660,
      "ヲ": 2661,
      "ン": 2662,
      "ヴ": 2663,
      "ヵ": 2664,
      "ヶ": 2665,
      "・": 2666,
      "ー": 2667,
      "ㄅ": 2668,
      "ㄖ": 2669,
      "ㅅ": 2670,
      "ㅏ": 2671,
      "ㅛ": 2672,
      "ㅟ": 2673,
      "ㅤ": 2674,
      "ㇰ": 2675,
      "ㇱ": 2676,
      "ㇲ": 2677,
      "ㇳ": 2678,
      "ㇴ": 2679,
      "ㇵ": 2680,
      "ㇶ": 2681,
      "ㇷ": 2682,
      "ㇸ": 2683,
      "ㇹ": 2684,
      "ㇺ": 2685,
      "ㇻ": 2686,
      "ㇼ": 2687,
      "ㇽ": 2688,
      "ㇾ": 2689,
      "ㇿ": 2690,
      "㊣": 2691,
      "㎢": 2692,
      "㎩": 2693,
      "㎪": 2694,
      "㥳": 2695,
      "㹮": 2696,
      "一": 2697,
      "丁": 2698,
      "七": 2699,
      "万": 2700,
      "丈": 2701,
      "三": 2702,
      "上": 2703,
      "下": 2704,
      "不": 2705,
      "与": 2706,
      "专": 2707,
      "且": 2708,
      "丕": 2709,
      "世": 2710,
      "丘": 2711,
      "丙": 2712,
      "业": 2713,
      "丛": 2714,
      "东": 2715,
      "丝": 2716,
      "丞": 2717,
      "両": 2718,
      "两": 2719,
      "严": 2720,
      "丧": 2721,
      "个": 2722,
      "丫": 2723,
      "丬": 2724,
      "中": 2725,
      "丰": 2726,
      "串": 2727,
      "临": 2728,
      "丸": 2729,
      "丹": 2730,
      "为": 2731,
      "主": 2732,
      "丼": 2733,
      "丽": 2734,
      "乃": 2735,
      "久": 2736,
      "么": 2737,
      "义": 2738,
      "之": 2739,
      "乌": 2740,
      "乎": 2741,
      "乏": 2742,
      "乐": 2743,
      "乒": 2744,
      "乓": 2745,
      "乔": 2746,
      "乗": 2747,
      "乘": 2748,
      "乙": 2749,
      "乚": 2750,
      "九": 2751,
      "乞": 2752,
      "也": 2753,
      "习": 2754,
      "乡": 2755,
      "书": 2756,
      "乪": 2757,
      "乯": 2758,
      "乱": 2759,
      "乳": 2760,
      "乽": 2761,
      "乾": 2762,
      "亀": 2763,
      "亂": 2764,
      "亅": 2765,
      "了": 2766,
      "予": 2767,
      "争": 2768,
      "事": 2769,
      "二": 2770,
      "于": 2771,
      "云": 2772,
      "互": 2773,
      "五": 2774,
      "井": 2775,
      "亚": 2776,
      "些": 2777,
      "亜": 2778,
      "亞": 2779,
      "亠": 2780,
      "亡": 2781,
      "交": 2782,
      "亥": 2783,
      "亦": 2784,
      "产": 2785,
      "亨": 2786,
      "享": 2787,
      "京": 2788,
      "亭": 2789,
      "亮": 2790,
      "亯": 2791,
      "亲": 2792,
      "亳": 2793,
      "人": 2794,
      "亻": 2795,
      "亽": 2796,
      "什": 2797,
      "仁": 2798,
      "仂": 2799,
      "仄": 2800,
      "仇": 2801,
      "今": 2802,
      "介": 2803,
      "仌": 2804,
      "仍": 2805,
      "从": 2806,
      "仏": 2807,
      "仑": 2808,
      "仓": 2809,
      "仔": 2810,
      "仕": 2811,
      "他": 2812,
      "付": 2813,
      "仙": 2814,
      "仡": 2815,
      "代": 2816,
      "令": 2817,
      "以": 2818,
      "仫": 2819,
      "们": 2820,
      "仮": 2821,
      "仰": 2822,
      "仲": 2823,
      "件": 2824,
      "任": 2825,
      "份": 2826,
      "企": 2827,
      "伅": 2828,
      "伉": 2829,
      "伊": 2830,
      "伍": 2831,
      "伎": 2832,
      "伏": 2833,
      "伐": 2834,
      "休": 2835,
      "众": 2836,
      "优": 2837,
      "伙": 2838,
      "会": 2839,
      "伝": 2840,
      "伞": 2841,
      "伟": 2842,
      "传": 2843,
      "伦": 2844,
      "伪": 2845,
      "伯": 2846,
      "伴": 2847,
      "伶": 2848,
      "伷": 2849,
      "伺": 2850,
      "似": 2851,
      "伽": 2852,
      "佃": 2853,
      "佇": 2854,
      "佈": 2855,
      "位": 2856,
      "住": 2857,
      "佐": 2858,
      "佑": 2859,
      "体": 2860,
      "何": 2861,
      "余": 2862,
      "佚": 2863,
      "佛": 2864,
      "作": 2865,
      "佟": 2866,
      "你": 2867,
      "佤": 2868,
      "佧": 2869,
      "佩": 2870,
      "佬": 2871,
      "佳": 2872,
      "使": 2873,
      "來": 2874,
      "侍": 2875,
      "侑": 2876,
      "侕": 2877,
      "侗": 2878,
      "供": 2879,
      "依": 2880,
      "侠": 2881,
      "価": 2882,
      "侯": 2883,
      "侵": 2884,
      "侶": 2885,
      "便": 2886,
      "係": 2887,
      "促": 2888,
      "俊": 2889,
      "俎": 2890,
      "俗": 2891,
      "保": 2892,
      "俞": 2893,
      "俠": 2894,
      "信": 2895,
      "俣": 2896,
      "修": 2897,
      "俱": 2898,
      "俳": 2899,
      "俵": 2900,
      "俺": 2901,
      "倂": 2902,
      "倈": 2903,
      "倉": 2904,
      "個": 2905,
      "們": 2906,
      "倖": 2907,
      "候": 2908,
      "倚": 2909,
      "借": 2910,
      "値": 2911,
      "倩": 2912,
      "倪": 2913,
      "倫": 2914,
      "倭": 2915,
      "倻": 2916,
      "偃": 2917,
      "假": 2918,
      "偈": 2919,
      "偉": 2920,
      "偏": 2921,
      "做": 2922,
      "停": 2923,
      "健": 2924,
      "側": 2925,
      "偵": 2926,
      "偷": 2927,
      "偽": 2928,
      "傅": 2929,
      "傍": 2930,
      "傑": 2931,
      "傘": 2932,
      "備": 2933,
      "傢": 2934,
      "傣": 2935,
      "催": 2936,
      "傲": 2937,
      "傳": 2938,
      "債": 2939,
      "傷": 2940,
      "傾": 2941,
      "働": 2942,
      "像": 2943,
      "僕": 2944,
      "僚": 2945,
      "僧": 2946,
      "儀": 2947,
      "億": 2948,
      "儉": 2949,
      "儋": 2950,
      "儒": 2951,
      "優": 2952,
      "儰": 2953,
      "儿": 2954,
      "兀": 2955,
      "允": 2956,
      "元": 2957,
      "兄": 2958,
      "充": 2959,
      "兆": 2960,
      "先": 2961,
      "光": 2962,
      "克": 2963,
      "兌": 2964,
      "免": 2965,
      "兎": 2966,
      "児": 2967,
      "兒": 2968,
      "兔": 2969,
      "兗": 2970,
      "党": 2971,
      "兜": 2972,
      "入": 2973,
      "內": 2974,
      "全": 2975,
      "兩": 2976,
      "八": 2977,
      "公": 2978,
      "六": 2979,
      "兮": 2980,
      "兰": 2981,
      "共": 2982,
      "关": 2983,
      "兴": 2984,
      "兵": 2985,
      "其": 2986,
      "具": 2987,
      "典": 2988,
      "养": 2989,
      "兼": 2990,
      "兽": 2991,
      "冀": 2992,
      "冂": 2993,
      "内": 2994,
      "円": 2995,
      "冈": 2996,
      "冉": 2997,
      "冊": 2998,
      "册": 2999,
      "再": 3000,
      "冒": 3001,
      "冗": 3002,
      "写": 3003,
      "军": 3004,
      "农": 3005,
      "冠": 3006,
      "冤": 3007,
      "冥": 3008,
      "冨": 3009,
      "冬": 3010,
      "冰": 3011,
      "冲": 3012,
      "决": 3013,
      "况": 3014,
      "冷": 3015,
      "净": 3016,
      "准": 3017,
      "凉": 3018,
      "凌": 3019,
      "减": 3020,
      "凛": 3021,
      "凜": 3022,
      "凝": 3023,
      "几": 3024,
      "凡": 3025,
      "凤": 3026,
      "処": 3027,
      "凯": 3028,
      "凰": 3029,
      "凵": 3030,
      "凶": 3031,
      "凷": 3032,
      "出": 3033,
      "击": 3034,
      "函": 3035,
      "刀": 3036,
      "刂": 3037,
      "刃": 3038,
      "分": 3039,
      "切": 3040,
      "刊": 3041,
      "刑": 3042,
      "划": 3043,
      "刖": 3044,
      "列": 3045,
      "刘": 3046,
      "则": 3047,
      "刚": 3048,
      "初": 3049,
      "判": 3050,
      "別": 3051,
      "利": 3052,
      "别": 3053,
      "到": 3054,
      "制": 3055,
      "刷": 3056,
      "刹": 3057,
      "刺": 3058,
      "刻": 3059,
      "剃": 3060,
      "則": 3061,
      "剉": 3062,
      "剋": 3063,
      "剌": 3064,
      "前": 3065,
      "剑": 3066,
      "剖": 3067,
      "剛": 3068,
      "剣": 3069,
      "剧": 3070,
      "副": 3071,
      "割": 3072,
      "創": 3073,
      "劃": 3074,
      "劇": 3075,
      "劈": 3076,
      "劉": 3077,
      "劍": 3078,
      "劒": 3079,
      "力": 3080,
      "劝": 3081,
      "办": 3082,
      "功": 3083,
      "加": 3084,
      "务": 3085,
      "动": 3086,
      "助": 3087,
      "劲": 3088,
      "労": 3089,
      "勁": 3090,
      "勃": 3091,
      "勅": 3092,
      "勇": 3093,
      "勉": 3094,
      "勋": 3095,
      "勐": 3096,
      "勒": 3097,
      "動": 3098,
      "勘": 3099,
      "務": 3100,
      "勝": 3101,
      "勢": 3102,
      "勤": 3103,
      "勱": 3104,
      "勵": 3105,
      "勾": 3106,
      "勿": 3107,
      "匀": 3108,
      "匂": 3109,
      "包": 3110,
      "化": 3111,
      "北": 3112,
      "匡": 3113,
      "匮": 3114,
      "匯": 3115,
      "匱": 3116,
      "区": 3117,
      "医": 3118,
      "區": 3119,
      "十": 3120,
      "千": 3121,
      "升": 3122,
      "午": 3123,
      "半": 3124,
      "卋": 3125,
      "卍": 3126,
      "华": 3127,
      "协": 3128,
      "卐": 3129,
      "卑": 3130,
      "卒": 3131,
      "卓": 3132,
      "協": 3133,
      "单": 3134,
      "卖": 3135,
      "南": 3136,
      "博": 3137,
      "卜": 3138,
      "占": 3139,
      "卡": 3140,
      "卢": 3141,
      "卤": 3142,
      "卦": 3143,
      "卫": 3144,
      "卬": 3145,
      "印": 3146,
      "危": 3147,
      "即": 3148,
      "却": 3149,
      "卵": 3150,
      "卷": 3151,
      "卿": 3152,
      "厂": 3153,
      "历": 3154,
      "压": 3155,
      "厚": 3156,
      "厝": 3157,
      "原": 3158,
      "厥": 3159,
      "厦": 3160,
      "厭": 3161,
      "厳": 3162,
      "去": 3163,
      "县": 3164,
      "参": 3165,
      "參": 3166,
      "又": 3167,
      "叉": 3168,
      "及": 3169,
      "友": 3170,
      "双": 3171,
      "反": 3172,
      "发": 3173,
      "叔": 3174,
      "取": 3175,
      "受": 3176,
      "变": 3177,
      "叙": 3178,
      "叛": 3179,
      "叢": 3180,
      "口": 3181,
      "古": 3182,
      "句": 3183,
      "另": 3184,
      "只": 3185,
      "叫": 3186,
      "召": 3187,
      "叮": 3188,
      "可": 3189,
      "台": 3190,
      "史": 3191,
      "右": 3192,
      "叶": 3193,
      "号": 3194,
      "司": 3195,
      "叻": 3196,
      "吃": 3197,
      "各": 3198,
      "合": 3199,
      "吉": 3200,
      "吋": 3201,
      "同": 3202,
      "名": 3203,
      "后": 3204,
      "吐": 3205,
      "向": 3206,
      "吕": 3207,
      "吙": 3208,
      "君": 3209,
      "吞": 3210,
      "吟": 3211,
      "吠": 3212,
      "否": 3213,
      "吧": 3214,
      "含": 3215,
      "听": 3216,
      "启": 3217,
      "吳": 3218,
      "吴": 3219,
      "吸": 3220,
      "吹": 3221,
      "吻": 3222,
      "吼": 3223,
      "吾": 3224,
      "呀": 3225,
      "呂": 3226,
      "呇": 3227,
      "呈": 3228,
      "告": 3229,
      "员": 3230,
      "呢": 3231,
      "周": 3232,
      "呪": 3233,
      "味": 3234,
      "呼": 3235,
      "命": 3236,
      "咀": 3237,
      "咁": 3238,
      "和": 3239,
      "咏": 3240,
      "咖": 3241,
      "咪": 3242,
      "咲": 3243,
      "咸": 3244,
      "哀": 3245,
      "品": 3246,
      "哇": 3247,
      "哈": 3248,
      "哉": 3249,
      "員": 3250,
      "哥": 3251,
      "哨": 3252,
      "哭": 3253,
      "哲": 3254,
      "哴": 3255,
      "哼": 3256,
      "唁": 3257,
      "唄": 3258,
      "唇": 3259,
      "唏": 3260,
      "唐": 3261,
      "唔": 3262,
      "唯": 3263,
      "唱": 3264,
      "唵": 3265,
      "啃": 3266,
      "啄": 3267,
      "商": 3268,
      "啇": 3269,
      "啊": 3270,
      "問": 3271,
      "啓": 3272,
      "啖": 3273,
      "啝": 3274,
      "啟": 3275,
      "啡": 3276,
      "啼": 3277,
      "喀": 3278,
      "善": 3279,
      "喆": 3280,
      "喉": 3281,
      "喜": 3282,
      "喧": 3283,
      "喪": 3284,
      "喫": 3285,
      "喬": 3286,
      "單": 3287,
      "喰": 3288,
      "喱": 3289,
      "喳": 3290,
      "営": 3291,
      "嗣": 3292,
      "嘉": 3293,
      "嘎": 3294,
      "嘗": 3295,
      "嘚": 3296,
      "嘩": 3297,
      "噂": 3298,
      "噌": 3299,
      "器": 3300,
      "噬": 3301,
      "噴": 3302,
      "嚁": 3303,
      "嚕": 3304,
      "嚳": 3305,
      "嚴": 3306,
      "囃": 3307,
      "囍": 3308,
      "囚": 3309,
      "四": 3310,
      "回": 3311,
      "囟": 3312,
      "团": 3313,
      "団": 3314,
      "园": 3315,
      "図": 3316,
      "围": 3317,
      "固": 3318,
      "国": 3319,
      "图": 3320,
      "圃": 3321,
      "圆": 3322,
      "圈": 3323,
      "國": 3324,
      "圍": 3325,
      "圏": 3326,
      "園": 3327,
      "圓": 3328,
      "圖": 3329,
      "團": 3330,
      "圜": 3331,
      "土": 3332,
      "圣": 3333,
      "在": 3334,
      "圭": 3335,
      "地": 3336,
      "圳": 3337,
      "场": 3338,
      "圻": 3339,
      "址": 3340,
      "坂": 3341,
      "均": 3342,
      "坊": 3343,
      "坎": 3344,
      "坐": 3345,
      "坑": 3346,
      "坚": 3347,
      "坛": 3348,
      "坝": 3349,
      "坟": 3350,
      "坡": 3351,
      "坤": 3352,
      "坦": 3353,
      "坪": 3354,
      "垂": 3355,
      "型": 3356,
      "垍": 3357,
      "垡": 3358,
      "垣": 3359,
      "城": 3360,
      "埔": 3361,
      "埕": 3362,
      "埜": 3363,
      "域": 3364,
      "埤": 3365,
      "執": 3366,
      "埸": 3367,
      "基": 3368,
      "埼": 3369,
      "堀": 3370,
      "堂": 3371,
      "堅": 3372,
      "堆": 3373,
      "堕": 3374,
      "堡": 3375,
      "堤": 3376,
      "堪": 3377,
      "堯": 3378,
      "報": 3379,
      "場": 3380,
      "堺": 3381,
      "塀": 3382,
      "塔": 3383,
      "塘": 3384,
      "塚": 3385,
      "塞": 3386,
      "塩": 3387,
      "塵": 3388,
      "境": 3389,
      "墓": 3390,
      "増": 3391,
      "增": 3392,
      "墟": 3393,
      "墨": 3394,
      "墳": 3395,
      "壁": 3396,
      "壆": 3397,
      "壊": 3398,
      "壓": 3399,
      "壤": 3400,
      "士": 3401,
      "壬": 3402,
      "壮": 3403,
      "壯": 3404,
      "声": 3405,
      "売": 3406,
      "壷": 3407,
      "壹": 3408,
      "壽": 3409,
      "处": 3410,
      "変": 3411,
      "复": 3412,
      "夏": 3413,
      "夕": 3414,
      "外": 3415,
      "多": 3416,
      "夜": 3417,
      "够": 3418,
      "夢": 3419,
      "大": 3420,
      "天": 3421,
      "太": 3422,
      "夫": 3423,
      "央": 3424,
      "失": 3425,
      "头": 3426,
      "夷": 3427,
      "夹": 3428,
      "奄": 3429,
      "奇": 3430,
      "奈": 3431,
      "奉": 3432,
      "奎": 3433,
      "奏": 3434,
      "契": 3435,
      "奔": 3436,
      "奕": 3437,
      "套": 3438,
      "奘": 3439,
      "奥": 3440,
      "奧": 3441,
      "奪": 3442,
      "奮": 3443,
      "女": 3444,
      "奴": 3445,
      "奶": 3446,
      "她": 3447,
      "好": 3448,
      "如": 3449,
      "妃": 3450,
      "妄": 3451,
      "妇": 3452,
      "妈": 3453,
      "妓": 3454,
      "妖": 3455,
      "妙": 3456,
      "妤": 3457,
      "妥": 3458,
      "妮": 3459,
      "妲": 3460,
      "妳": 3461,
      "妹": 3462,
      "妻": 3463,
      "妾": 3464,
      "姉": 3465,
      "始": 3466,
      "姐": 3467,
      "姑": 3468,
      "姓": 3469,
      "委": 3470,
      "姗": 3471,
      "姚": 3472,
      "姜": 3473,
      "姞": 3474,
      "姥": 3475,
      "姫": 3476,
      "姬": 3477,
      "姻": 3478,
      "威": 3479,
      "娃": 3480,
      "娇": 3481,
      "娑": 3482,
      "娘": 3483,
      "娛": 3484,
      "娜": 3485,
      "娟": 3486,
      "娥": 3487,
      "娶": 3488,
      "婆": 3489,
      "婉": 3490,
      "婕": 3491,
      "婚": 3492,
      "婡": 3493,
      "婢": 3494,
      "婦": 3495,
      "婴": 3496,
      "婷": 3497,
      "婿": 3498,
      "媒": 3499,
      "媚": 3500,
      "媛": 3501,
      "媽": 3502,
      "嫁": 3503,
      "嫄": 3504,
      "嫌": 3505,
      "嫔": 3506,
      "嫖": 3507,
      "嫡": 3508,
      "嫦": 3509,
      "嫩": 3510,
      "嬉": 3511,
      "嬌": 3512,
      "嬢": 3513,
      "嬪": 3514,
      "嬰": 3515,
      "孃": 3516,
      "子": 3517,
      "孒": 3518,
      "孔": 3519,
      "字": 3520,
      "存": 3521,
      "孙": 3522,
      "孚": 3523,
      "孛": 3524,
      "孜": 3525,
      "孝": 3526,
      "孞": 3527,
      "孟": 3528,
      "季": 3529,
      "孤": 3530,
      "学": 3531,
      "孩": 3532,
      "孫": 3533,
      "學": 3534,
      "孽": 3535,
      "宀": 3536,
      "宁": 3537,
      "它": 3538,
      "宅": 3539,
      "宇": 3540,
      "守": 3541,
      "安": 3542,
      "宋": 3543,
      "完": 3544,
      "宏": 3545,
      "宕": 3546,
      "宗": 3547,
      "官": 3548,
      "宙": 3549,
      "定": 3550,
      "宜": 3551,
      "宝": 3552,
      "实": 3553,
      "実": 3554,
      "审": 3555,
      "客": 3556,
      "宣": 3557,
      "室": 3558,
      "宦": 3559,
      "宪": 3560,
      "宫": 3561,
      "宬": 3562,
      "宮": 3563,
      "宰": 3564,
      "害": 3565,
      "宴": 3566,
      "宵": 3567,
      "家": 3568,
      "容": 3569,
      "宽": 3570,
      "宾": 3571,
      "宿": 3572,
      "寂": 3573,
      "寄": 3574,
      "寅": 3575,
      "密": 3576,
      "寇": 3577,
      "富": 3578,
      "寒": 3579,
      "寛": 3580,
      "寝": 3581,
      "寞": 3582,
      "察": 3583,
      "寢": 3584,
      "寥": 3585,
      "實": 3586,
      "寧": 3587,
      "寨": 3588,
      "審": 3589,
      "寫": 3590,
      "寮": 3591,
      "寰": 3592,
      "寵": 3593,
      "寶": 3594,
      "寸": 3595,
      "对": 3596,
      "寺": 3597,
      "寻": 3598,
      "导": 3599,
      "対": 3600,
      "寿": 3601,
      "封": 3602,
      "専": 3603,
      "射": 3604,
      "将": 3605,
      "將": 3606,
      "專": 3607,
      "尉": 3608,
      "尊": 3609,
      "尋": 3610,
      "對": 3611,
      "導": 3612,
      "小": 3613,
      "少": 3614,
      "尔": 3615,
      "尖": 3616,
      "尘": 3617,
      "尚": 3618,
      "就": 3619,
      "尸": 3620,
      "尹": 3621,
      "尺": 3622,
      "尼": 3623,
      "尽": 3624,
      "尾": 3625,
      "尿": 3626,
      "局": 3627,
      "层": 3628,
      "屃": 3629,
      "屄": 3630,
      "居": 3631,
      "屈": 3632,
      "届": 3633,
      "屋": 3634,
      "屍": 3635,
      "屎": 3636,
      "屏": 3637,
      "屑": 3638,
      "展": 3639,
      "属": 3640,
      "屠": 3641,
      "層": 3642,
      "履": 3643,
      "屬": 3644,
      "屮": 3645,
      "屯": 3646,
      "山": 3647,
      "屿": 3648,
      "岁": 3649,
      "岐": 3650,
      "岑": 3651,
      "岗": 3652,
      "岚": 3653,
      "岛": 3654,
      "岡": 3655,
      "岩": 3656,
      "岭": 3657,
      "岳": 3658,
      "岷": 3659,
      "岸": 3660,
      "峒": 3661,
      "峙": 3662,
      "峡": 3663,
      "峨": 3664,
      "峯": 3665,
      "峰": 3666,
      "島": 3667,
      "崆": 3668,
      "崇": 3669,
      "崍": 3670,
      "崎": 3671,
      "崑": 3672,
      "崔": 3673,
      "崖": 3674,
      "崙": 3675,
      "崩": 3676,
      "嵊": 3677,
      "嵐": 3678,
      "嵩": 3679,
      "嶋": 3680,
      "嶺": 3681,
      "嶽": 3682,
      "巖": 3683,
      "川": 3684,
      "州": 3685,
      "巡": 3686,
      "工": 3687,
      "左": 3688,
      "巧": 3689,
      "巨": 3690,
      "巩": 3691,
      "巫": 3692,
      "差": 3693,
      "己": 3694,
      "已": 3695,
      "巳": 3696,
      "巴": 3697,
      "巷": 3698,
      "巻": 3699,
      "巾": 3700,
      "市": 3701,
      "布": 3702,
      "帅": 3703,
      "帆": 3704,
      "师": 3705,
      "希": 3706,
      "帕": 3707,
      "帖": 3708,
      "帛": 3709,
      "帝": 3710,
      "帥": 3711,
      "带": 3712,
      "師": 3713,
      "席": 3714,
      "帮": 3715,
      "帯": 3716,
      "帰": 3717,
      "帳": 3718,
      "帶": 3719,
      "常": 3720,
      "幕": 3721,
      "幗": 3722,
      "幡": 3723,
      "幣": 3724,
      "幫": 3725,
      "干": 3726,
      "平": 3727,
      "年": 3728,
      "并": 3729,
      "幸": 3730,
      "幹": 3731,
      "幺": 3732,
      "幻": 3733,
      "幼": 3734,
      "幽": 3735,
      "幾": 3736,
      "广": 3737,
      "庁": 3738,
      "広": 3739,
      "庄": 3740,
      "庆": 3741,
      "序": 3742,
      "庑": 3743,
      "库": 3744,
      "应": 3745,
      "底": 3746,
      "店": 3747,
      "庙": 3748,
      "庚": 3749,
      "府": 3750,
      "庞": 3751,
      "废": 3752,
      "度": 3753,
      "座": 3754,
      "庫": 3755,
      "庭": 3756,
      "庳": 3757,
      "庵": 3758,
      "康": 3759,
      "庾": 3760,
      "廂": 3761,
      "廃": 3762,
      "廈": 3763,
      "廉": 3764,
      "廊": 3765,
      "廖": 3766,
      "廚": 3767,
      "廟": 3768,
      "廠": 3769,
      "廢": 3770,
      "廣": 3771,
      "廬": 3772,
      "廳": 3773,
      "延": 3774,
      "廷": 3775,
      "廹": 3776,
      "建": 3777,
      "廻": 3778,
      "开": 3779,
      "弁": 3780,
      "异": 3781,
      "弄": 3782,
      "弋": 3783,
      "弍": 3784,
      "式": 3785,
      "弐": 3786,
      "弓": 3787,
      "引": 3788,
      "弗": 3789,
      "弘": 3790,
      "弛": 3791,
      "弟": 3792,
      "张": 3793,
      "弥": 3794,
      "弦": 3795,
      "弧": 3796,
      "弩": 3797,
      "弭": 3798,
      "張": 3799,
      "強": 3800,
      "弹": 3801,
      "强": 3802,
      "弾": 3803,
      "彈": 3804,
      "彊": 3805,
      "彌": 3806,
      "彎": 3807,
      "归": 3808,
      "当": 3809,
      "录": 3810,
      "彗": 3811,
      "彝": 3812,
      "彡": 3813,
      "形": 3814,
      "彦": 3815,
      "彩": 3816,
      "彪": 3817,
      "彬": 3818,
      "彭": 3819,
      "彰": 3820,
      "影": 3821,
      "役": 3822,
      "彼": 3823,
      "往": 3824,
      "征": 3825,
      "待": 3826,
      "很": 3827,
      "律": 3828,
      "後": 3829,
      "徐": 3830,
      "徑": 3831,
      "徒": 3832,
      "得": 3833,
      "從": 3834,
      "御": 3835,
      "復": 3836,
      "循": 3837,
      "微": 3838,
      "徳": 3839,
      "德": 3840,
      "徹": 3841,
      "徽": 3842,
      "心": 3843,
      "忄": 3844,
      "必": 3845,
      "忆": 3846,
      "忍": 3847,
      "志": 3848,
      "忘": 3849,
      "応": 3850,
      "忠": 3851,
      "忣": 3852,
      "快": 3853,
      "念": 3854,
      "忽": 3855,
      "怀": 3856,
      "态": 3857,
      "怎": 3858,
      "怒": 3859,
      "怖": 3860,
      "怜": 3861,
      "思": 3862,
      "怡": 3863,
      "急": 3864,
      "性": 3865,
      "怨": 3866,
      "怪": 3867,
      "总": 3868,
      "怼": 3869,
      "恆": 3870,
      "恋": 3871,
      "恐": 3872,
      "恒": 3873,
      "恨": 3874,
      "恩": 3875,
      "恭": 3876,
      "息": 3877,
      "恵": 3878,
      "恶": 3879,
      "恽": 3880,
      "悉": 3881,
      "悔": 3882,
      "悟": 3883,
      "悠": 3884,
      "患": 3885,
      "悦": 3886,
      "您": 3887,
      "悩": 3888,
      "悪": 3889,
      "悫": 3890,
      "悲": 3891,
      "情": 3892,
      "惇": 3893,
      "惑": 3894,
      "惟": 3895,
      "惠": 3896,
      "惡": 3897,
      "惢": 3898,
      "惣": 3899,
      "惧": 3900,
      "想": 3901,
      "愁": 3902,
      "愈": 3903,
      "意": 3904,
      "愕": 3905,
      "愚": 3906,
      "愛": 3907,
      "感": 3908,
      "愷": 3909,
      "愿": 3910,
      "慄": 3911,
      "慈": 3912,
      "慊": 3913,
      "態": 3914,
      "慎": 3915,
      "慕": 3916,
      "慢": 3917,
      "慣": 3918,
      "慧": 3919,
      "慨": 3920,
      "慮": 3921,
      "慰": 3922,
      "慶": 3923,
      "憂": 3924,
      "憎": 3925,
      "憑": 3926,
      "憧": 3927,
      "憨": 3928,
      "憮": 3929,
      "憲": 3930,
      "憶": 3931,
      "憾": 3932,
      "應": 3933,
      "懙": 3934,
      "懲": 3935,
      "懶": 3936,
      "懷": 3937,
      "懸": 3938,
      "懺": 3939,
      "懼": 3940,
      "懿": 3941,
      "戀": 3942,
      "戈": 3943,
      "戊": 3944,
      "戌": 3945,
      "戎": 3946,
      "戏": 3947,
      "成": 3948,
      "我": 3949,
      "戒": 3950,
      "或": 3951,
      "战": 3952,
      "戟": 3953,
      "戦": 3954,
      "戰": 3955,
      "戲": 3956,
      "戴": 3957,
      "戶": 3958,
      "户": 3959,
      "戸": 3960,
      "戻": 3961,
      "房": 3962,
      "所": 3963,
      "扁": 3964,
      "扃": 3965,
      "扇": 3966,
      "扈": 3967,
      "扉": 3968,
      "手": 3969,
      "扌": 3970,
      "才": 3971,
      "扎": 3972,
      "打": 3973,
      "托": 3974,
      "扡": 3975,
      "执": 3976,
      "扬": 3977,
      "扶": 3978,
      "批": 3979,
      "找": 3980,
      "承": 3981,
      "技": 3982,
      "抄": 3983,
      "抉": 3984,
      "把": 3985,
      "投": 3986,
      "抗": 3987,
      "折": 3988,
      "抚": 3989,
      "抜": 3990,
      "护": 3991,
      "报": 3992,
      "抱": 3993,
      "抵": 3994,
      "抹": 3995,
      "押": 3996,
      "拂": 3997,
      "拉": 3998,
      "拍": 3999,
      "拏": 4000,
      "拓": 4001,
      "拔": 4002,
      "拖": 4003,
      "招": 4004,
      "拜": 4005,
      "拟": 4006,
      "拡": 4007,
      "拯": 4008,
      "拱": 4009,
      "拳": 4010,
      "拼": 4011,
      "拾": 4012,
      "拿": 4013,
      "持": 4014,
      "指": 4015,
      "按": 4016,
      "挑": 4017,
      "挙": 4018,
      "挝": 4019,
      "挡": 4020,
      "振": 4021,
      "挺": 4022,
      "捌": 4023,
      "捕": 4024,
      "捜": 4025,
      "捞": 4026,
      "捨": 4027,
      "据": 4028,
      "捲": 4029,
      "捷": 4030,
      "授": 4031,
      "掌": 4032,
      "掏": 4033,
      "排": 4034,
      "掘": 4035,
      "掛": 4036,
      "掟": 4037,
      "探": 4038,
      "接": 4039,
      "控": 4040,
      "推": 4041,
      "掩": 4042,
      "措": 4043,
      "掰": 4044,
      "掱": 4045,
      "掴": 4046,
      "掻": 4047,
      "揆": 4048,
      "提": 4049,
      "插": 4050,
      "揚": 4051,
      "握": 4052,
      "揭": 4053,
      "揮": 4054,
      "援": 4055,
      "揺": 4056,
      "搜": 4057,
      "搞": 4058,
      "携": 4059,
      "摠": 4060,
      "摩": 4061,
      "摭": 4062,
      "撃": 4063,
      "撈": 4064,
      "撒": 4065,
      "撤": 4066,
      "撥": 4067,
      "撫": 4068,
      "播": 4069,
      "撰": 4070,
      "撼": 4071,
      "擁": 4072,
      "擂": 4073,
      "擇": 4074,
      "擊": 4075,
      "操": 4076,
      "據": 4077,
      "擲": 4078,
      "攝": 4079,
      "支": 4080,
      "收": 4081,
      "改": 4082,
      "攻": 4083,
      "放": 4084,
      "政": 4085,
      "故": 4086,
      "效": 4087,
      "敎": 4088,
      "敏": 4089,
      "救": 4090,
      "敖": 4091,
      "教": 4092,
      "敞": 4093,
      "敢": 4094,
      "散": 4095,
      "敦": 4096,
      "敬": 4097,
      "数": 4098,
      "整": 4099,
      "敵": 4100,
      "敷": 4101,
      "數": 4102,
      "斃": 4103,
      "文": 4104,
      "斉": 4105,
      "斋": 4106,
      "斌": 4107,
      "斎": 4108,
      "斐": 4109,
      "斑": 4110,
      "斗": 4111,
      "料": 4112,
      "斛": 4113,
      "斜": 4114,
      "斡": 4115,
      "斤": 4116,
      "斥": 4117,
      "斧": 4118,
      "斩": 4119,
      "斬": 4120,
      "斯": 4121,
      "新": 4122,
      "斷": 4123,
      "方": 4124,
      "於": 4125,
      "施": 4126,
      "旁": 4127,
      "旅": 4128,
      "旋": 4129,
      "族": 4130,
      "旗": 4131,
      "无": 4132,
      "日": 4133,
      "旦": 4134,
      "旧": 4135,
      "旨": 4136,
      "早": 4137,
      "旬": 4138,
      "旭": 4139,
      "旰": 4140,
      "旳": 4141,
      "时": 4142,
      "旺": 4143,
      "旻": 4144,
      "旽": 4145,
      "昀": 4146,
      "昂": 4147,
      "昆": 4148,
      "昇": 4149,
      "昊": 4150,
      "昌": 4151,
      "明": 4152,
      "易": 4153,
      "昔": 4154,
      "星": 4155,
      "映": 4156,
      "春": 4157,
      "昧": 4158,
      "昨": 4159,
      "昭": 4160,
      "是": 4161,
      "昱": 4162,
      "昺": 4163,
      "昼": 4164,
      "晁": 4165,
      "時": 4166,
      "晃": 4167,
      "晉": 4168,
      "晋": 4169,
      "晒": 4170,
      "晓": 4171,
      "晚": 4172,
      "晟": 4173,
      "晨": 4174,
      "晩": 4175,
      "普": 4176,
      "景": 4177,
      "晴": 4178,
      "晶": 4179,
      "智": 4180,
      "暁": 4181,
      "暗": 4182,
      "暦": 4183,
      "暨": 4184,
      "暮": 4185,
      "暴": 4186,
      "曇": 4187,
      "曉": 4188,
      "曓": 4189,
      "曖": 4190,
      "曜": 4191,
      "曠": 4192,
      "曰": 4193,
      "曲": 4194,
      "更": 4195,
      "書": 4196,
      "曹": 4197,
      "曼": 4198,
      "曽": 4199,
      "曾": 4200,
      "替": 4201,
      "最": 4202,
      "會": 4203,
      "月": 4204,
      "有": 4205,
      "朋": 4206,
      "朌": 4207,
      "服": 4208,
      "朕": 4209,
      "朗": 4210,
      "望": 4211,
      "朝": 4212,
      "期": 4213,
      "朢": 4214,
      "朦": 4215,
      "朧": 4216,
      "木": 4217,
      "朩": 4218,
      "未": 4219,
      "末": 4220,
      "本": 4221,
      "札": 4222,
      "术": 4223,
      "朱": 4224,
      "朲": 4225,
      "朴": 4226,
      "朵": 4227,
      "机": 4228,
      "朽": 4229,
      "杀": 4230,
      "杂": 4231,
      "权": 4232,
      "杉": 4233,
      "李": 4234,
      "杏": 4235,
      "材": 4236,
      "村": 4237,
      "杜": 4238,
      "杞": 4239,
      "束": 4240,
      "条": 4241,
      "杣": 4242,
      "来": 4243,
      "杨": 4244,
      "杭": 4245,
      "杯": 4246,
      "杰": 4247,
      "東": 4248,
      "杵": 4249,
      "杺": 4250,
      "松": 4251,
      "板": 4252,
      "极": 4253,
      "构": 4254,
      "析": 4255,
      "枕": 4256,
      "林": 4257,
      "枚": 4258,
      "果": 4259,
      "枝": 4260,
      "枡": 4261,
      "枪": 4262,
      "枯": 4263,
      "架": 4264,
      "枹": 4265,
      "柄": 4266,
      "柊": 4267,
      "柏": 4268,
      "某": 4269,
      "柑": 4270,
      "染": 4271,
      "柔": 4272,
      "柘": 4273,
      "柚": 4274,
      "柞": 4275,
      "查": 4276,
      "柩": 4277,
      "柯": 4278,
      "柱": 4279,
      "柳": 4280,
      "柴": 4281,
      "柵": 4282,
      "査": 4283,
      "栂": 4284,
      "栃": 4285,
      "栄": 4286,
      "标": 4287,
      "栋": 4288,
      "栎": 4289,
      "栏": 4290,
      "树": 4291,
      "栖": 4292,
      "栗": 4293,
      "栝": 4294,
      "校": 4295,
      "株": 4296,
      "样": 4297,
      "核": 4298,
      "根": 4299,
      "格": 4300,
      "桂": 4301,
      "桃": 4302,
      "案": 4303,
      "桐": 4304,
      "桑": 4305,
      "桓": 4306,
      "桔": 4307,
      "桜": 4308,
      "桥": 4309,
      "梁": 4310,
      "梅": 4311,
      "梓": 4312,
      "條": 4313,
      "梦": 4314,
      "梧": 4315,
      "梨": 4316,
      "梭": 4317,
      "梯": 4318,
      "械": 4319,
      "梵": 4320,
      "棂": 4321,
      "棉": 4322,
      "棋": 4323,
      "棍": 4324,
      "棒": 4325,
      "棗": 4326,
      "森": 4327,
      "椅": 4328,
      "椇": 4329,
      "植": 4330,
      "椎": 4331,
      "椒": 4332,
      "椙": 4333,
      "検": 4334,
      "椵": 4335,
      "楆": 4336,
      "楊": 4337,
      "楓": 4338,
      "楔": 4339,
      "楚": 4340,
      "楞": 4341,
      "業": 4342,
      "極": 4343,
      "楷": 4344,
      "楼": 4345,
      "楽": 4346,
      "概": 4347,
      "榆": 4348,
      "榊": 4349,
      "榛": 4350,
      "榜": 4351,
      "榭": 4352,
      "榮": 4353,
      "槁": 4354,
      "槇": 4355,
      "構": 4356,
      "槍": 4357,
      "様": 4358,
      "槻": 4359,
      "樂": 4360,
      "樊": 4361,
      "樓": 4362,
      "標": 4363,
      "樞": 4364,
      "模": 4365,
      "樣": 4366,
      "権": 4367,
      "横": 4368,
      "樫": 4369,
      "樱": 4370,
      "樵": 4371,
      "樶": 4372,
      "樸": 4373,
      "樹": 4374,
      "樺": 4375,
      "橋": 4376,
      "橘": 4377,
      "機": 4378,
      "橫": 4379,
      "檀": 4380,
      "檄": 4381,
      "檎": 4382,
      "檗": 4383,
      "檻": 4384,
      "櫓": 4385,
      "櫛": 4386,
      "櫻": 4387,
      "欄": 4388,
      "權": 4389,
      "欒": 4390,
      "欠": 4391,
      "次": 4392,
      "欢": 4393,
      "欣": 4394,
      "欧": 4395,
      "欬": 4396,
      "欲": 4397,
      "欽": 4398,
      "款": 4399,
      "歆": 4400,
      "歌": 4401,
      "歐": 4402,
      "歓": 4403,
      "歟": 4404,
      "歡": 4405,
      "止": 4406,
      "正": 4407,
      "此": 4408,
      "步": 4409,
      "武": 4410,
      "歧": 4411,
      "歩": 4412,
      "歪": 4413,
      "歲": 4414,
      "歳": 4415,
      "歴": 4416,
      "歷": 4417,
      "歸": 4418,
      "死": 4419,
      "殇": 4420,
      "殊": 4421,
      "残": 4422,
      "殖": 4423,
      "殘": 4424,
      "殤": 4425,
      "殭": 4426,
      "殯": 4427,
      "段": 4428,
      "殷": 4429,
      "殺": 4430,
      "殻": 4431,
      "殿": 4432,
      "毅": 4433,
      "母": 4434,
      "每": 4435,
      "毒": 4436,
      "比": 4437,
      "毗": 4438,
      "毘": 4439,
      "毛": 4440,
      "毟": 4441,
      "氏": 4442,
      "民": 4443,
      "氓": 4444,
      "气": 4445,
      "気": 4446,
      "氣": 4447,
      "水": 4448,
      "氵": 4449,
      "氷": 4450,
      "永": 4451,
      "氹": 4452,
      "汀": 4453,
      "汁": 4454,
      "求": 4455,
      "汆": 4456,
      "汇": 4457,
      "汉": 4458,
      "汗": 4459,
      "汚": 4460,
      "江": 4461,
      "池": 4462,
      "污": 4463,
      "汤": 4464,
      "汪": 4465,
      "汶": 4466,
      "決": 4467,
      "汽": 4468,
      "汾": 4469,
      "沁": 4470,
      "沃": 4471,
      "沅": 4472,
      "沈": 4473,
      "沉": 4474,
      "沊": 4475,
      "沒": 4476,
      "沓": 4477,
      "沔": 4478,
      "沖": 4479,
      "沙": 4480,
      "沝": 4481,
      "沟": 4482,
      "没": 4483,
      "沢": 4484,
      "沧": 4485,
      "沪": 4486,
      "沱": 4487,
      "河": 4488,
      "油": 4489,
      "治": 4490,
      "沼": 4491,
      "沽": 4492,
      "沿": 4493,
      "況": 4494,
      "泉": 4495,
      "法": 4496,
      "泗": 4497,
      "泡": 4498,
      "波": 4499,
      "泣": 4500,
      "泥": 4501,
      "注": 4502,
      "泮": 4503,
      "泯": 4504,
      "泰": 4505,
      "泸": 4506,
      "泽": 4507,
      "泾": 4508,
      "洁": 4509,
      "洄": 4510,
      "洋": 4511,
      "洗": 4512,
      "洙": 4513,
      "洛": 4514,
      "洞": 4515,
      "洢": 4516,
      "津": 4517,
      "洪": 4518,
      "洮": 4519,
      "洱": 4520,
      "洲": 4521,
      "洵": 4522,
      "活": 4523,
      "洼": 4524,
      "派": 4525,
      "流": 4526,
      "浄": 4527,
      "浅": 4528,
      "浆": 4529,
      "浉": 4530,
      "济": 4531,
      "浑": 4532,
      "浒": 4533,
      "浚": 4534,
      "浜": 4535,
      "浦": 4536,
      "浩": 4537,
      "浪": 4538,
      "浮": 4539,
      "海": 4540,
      "浼": 4541,
      "涂": 4542,
      "消": 4543,
      "涌": 4544,
      "涔": 4545,
      "涙": 4546,
      "涛": 4547,
      "涧": 4548,
      "涪": 4549,
      "涯": 4550,
      "液": 4551,
      "涼": 4552,
      "淏": 4553,
      "淑": 4554,
      "淖": 4555,
      "淚": 4556,
      "淡": 4557,
      "淨": 4558,
      "淫": 4559,
      "淮": 4560,
      "深": 4561,
      "淳": 4562,
      "淵": 4563,
      "混": 4564,
      "淸": 4565,
      "淺": 4566,
      "清": 4567,
      "渇": 4568,
      "渉": 4569,
      "渊": 4570,
      "渓": 4571,
      "渕": 4572,
      "渚": 4573,
      "渝": 4574,
      "渠": 4575,
      "渡": 4576,
      "温": 4577,
      "測": 4578,
      "渭": 4579,
      "港": 4580,
      "游": 4581,
      "湄": 4582,
      "湊": 4583,
      "湖": 4584,
      "湘": 4585,
      "湛": 4586,
      "湜": 4587,
      "湯": 4588,
      "湾": 4589,
      "満": 4590,
      "源": 4591,
      "準": 4592,
      "溜": 4593,
      "溝": 4594,
      "溪": 4595,
      "滄": 4596,
      "滅": 4597,
      "滇": 4598,
      "滑": 4599,
      "滕": 4600,
      "滚": 4601,
      "滝": 4602,
      "滞": 4603,
      "满": 4604,
      "滨": 4605,
      "滲": 4606,
      "滴": 4607,
      "滷": 4608,
      "滸": 4609,
      "滾": 4610,
      "滿": 4611,
      "漁": 4612,
      "漂": 4613,
      "漆": 4614,
      "漉": 4615,
      "漏": 4616,
      "演": 4617,
      "漠": 4618,
      "漢": 4619,
      "漣": 4620,
      "漫": 4621,
      "漬": 4622,
      "漸": 4623,
      "漾": 4624,
      "漿": 4625,
      "潇": 4626,
      "潍": 4627,
      "潔": 4628,
      "潘": 4629,
      "潛": 4630,
      "潜": 4631,
      "潞": 4632,
      "潟": 4633,
      "潢": 4634,
      "潤": 4635,
      "潭": 4636,
      "潮": 4637,
      "潯": 4638,
      "潰": 4639,
      "澄": 4640,
      "澜": 4641,
      "澤": 4642,
      "澧": 4643,
      "澱": 4644,
      "澳": 4645,
      "澹": 4646,
      "激": 4647,
      "濃": 4648,
      "濕": 4649,
      "濘": 4650,
      "濟": 4651,
      "濤": 4652,
      "濧": 4653,
      "濱": 4654,
      "瀋": 4655,
      "瀑": 4656,
      "瀚": 4657,
      "瀛": 4658,
      "瀧": 4659,
      "瀬": 4660,
      "瀾": 4661,
      "灌": 4662,
      "灘": 4663,
      "灞": 4664,
      "灣": 4665,
      "火": 4666,
      "灬": 4667,
      "灯": 4668,
      "灰": 4669,
      "灱": 4670,
      "灵": 4671,
      "災": 4672,
      "炉": 4673,
      "炊": 4674,
      "炎": 4675,
      "炒": 4676,
      "炜": 4677,
      "炫": 4678,
      "炬": 4679,
      "炭": 4680,
      "炮": 4681,
      "炳": 4682,
      "炸": 4683,
      "点": 4684,
      "為": 4685,
      "烈": 4686,
      "烏": 4687,
      "烟": 4688,
      "烠": 4689,
      "烤": 4690,
      "烧": 4691,
      "热": 4692,
      "烽": 4693,
      "焉": 4694,
      "焔": 4695,
      "焕": 4696,
      "焗": 4697,
      "焚": 4698,
      "無": 4699,
      "然": 4700,
      "焼": 4701,
      "煉": 4702,
      "煌": 4703,
      "煎": 4704,
      "煙": 4705,
      "煜": 4706,
      "煥": 4707,
      "煦": 4708,
      "照": 4709,
      "煩": 4710,
      "煮": 4711,
      "煲": 4712,
      "熊": 4713,
      "熙": 4714,
      "熱": 4715,
      "燁": 4716,
      "燈": 4717,
      "燒": 4718,
      "燕": 4719,
      "營": 4720,
      "燦": 4721,
      "燭": 4722,
      "燮": 4723,
      "燴": 4724,
      "爆": 4725,
      "爐": 4726,
      "爛": 4727,
      "爭": 4728,
      "爱": 4729,
      "爲": 4730,
      "爵": 4731,
      "父": 4732,
      "爷": 4733,
      "爸": 4734,
      "爹": 4735,
      "爺": 4736,
      "爻": 4737,
      "爽": 4738,
      "爾": 4739,
      "爿": 4740,
      "牆": 4741,
      "片": 4742,
      "版": 4743,
      "牌": 4744,
      "牙": 4745,
      "牛": 4746,
      "牝": 4747,
      "牟": 4748,
      "牡": 4749,
      "牢": 4750,
      "牧": 4751,
      "物": 4752,
      "牯": 4753,
      "特": 4754,
      "犀": 4755,
      "犁": 4756,
      "犛": 4757,
      "犬": 4758,
      "犭": 4759,
      "犯": 4760,
      "状": 4761,
      "狂": 4762,
      "狄": 4763,
      "狐": 4764,
      "狗": 4765,
      "狙": 4766,
      "狡": 4767,
      "狩": 4768,
      "独": 4769,
      "狮": 4770,
      "狸": 4771,
      "狼": 4772,
      "猛": 4773,
      "猟": 4774,
      "猥": 4775,
      "猪": 4776,
      "猫": 4777,
      "献": 4778,
      "猴": 4779,
      "猶": 4780,
      "猿": 4781,
      "獄": 4782,
      "獅": 4783,
      "獎": 4784,
      "獏": 4785,
      "獣": 4786,
      "獨": 4787,
      "獸": 4788,
      "獻": 4789,
      "玄": 4790,
      "率": 4791,
      "玉": 4792,
      "王": 4793,
      "玕": 4794,
      "玗": 4795,
      "玛": 4796,
      "玩": 4797,
      "玫": 4798,
      "环": 4799,
      "现": 4800,
      "玲": 4801,
      "玺": 4802,
      "珂": 4803,
      "珊": 4804,
      "珍": 4805,
      "珎": 4806,
      "珙": 4807,
      "珞": 4808,
      "珠": 4809,
      "珩": 4810,
      "珪": 4811,
      "班": 4812,
      "珮": 4813,
      "現": 4814,
      "球": 4815,
      "琅": 4816,
      "理": 4817,
      "琉": 4818,
      "琊": 4819,
      "琎": 4820,
      "琛": 4821,
      "琢": 4822,
      "琦": 4823,
      "琪": 4824,
      "琮": 4825,
      "琳": 4826,
      "琴": 4827,
      "琺": 4828,
      "琼": 4829,
      "琾": 4830,
      "瑕": 4831,
      "瑚": 4832,
      "瑛": 4833,
      "瑜": 4834,
      "瑞": 4835,
      "瑟": 4836,
      "瑠": 4837,
      "瑩": 4838,
      "瑪": 4839,
      "瑰": 4840,
      "瑶": 4841,
      "瑾": 4842,
      "璃": 4843,
      "璐": 4844,
      "璞": 4845,
      "璽": 4846,
      "瓊": 4847,
      "瓜": 4848,
      "瓢": 4849,
      "瓣": 4850,
      "瓦": 4851,
      "甄": 4852,
      "甕": 4853,
      "甘": 4854,
      "甜": 4855,
      "甝": 4856,
      "生": 4857,
      "產": 4858,
      "産": 4859,
      "用": 4860,
      "甫": 4861,
      "甬": 4862,
      "田": 4863,
      "由": 4864,
      "甲": 4865,
      "申": 4866,
      "甴": 4867,
      "电": 4868,
      "男": 4869,
      "甸": 4870,
      "町": 4871,
      "画": 4872,
      "畅": 4873,
      "界": 4874,
      "畏": 4875,
      "留": 4876,
      "畜": 4877,
      "畢": 4878,
      "略": 4879,
      "番": 4880,
      "畫": 4881,
      "異": 4882,
      "畴": 4883,
      "當": 4884,
      "畷": 4885,
      "畿": 4886,
      "疆": 4887,
      "疊": 4888,
      "疋": 4889,
      "疏": 4890,
      "疑": 4891,
      "疫": 4892,
      "疾": 4893,
      "病": 4894,
      "症": 4895,
      "痕": 4896,
      "痛": 4897,
      "痴": 4898,
      "瘂": 4899,
      "瘟": 4900,
      "癡": 4901,
      "癨": 4902,
      "癸": 4903,
      "発": 4904,
      "登": 4905,
      "發": 4906,
      "白": 4907,
      "百": 4908,
      "的": 4909,
      "皆": 4910,
      "皇": 4911,
      "皞": 4912,
      "皮": 4913,
      "盈": 4914,
      "益": 4915,
      "盎": 4916,
      "盐": 4917,
      "盔": 4918,
      "盖": 4919,
      "盗": 4920,
      "盘": 4921,
      "盛": 4922,
      "盟": 4923,
      "盡": 4924,
      "監": 4925,
      "盤": 4926,
      "盧": 4927,
      "目": 4928,
      "盲": 4929,
      "直": 4930,
      "相": 4931,
      "盼": 4932,
      "盾": 4933,
      "省": 4934,
      "看": 4935,
      "県": 4936,
      "眎": 4937,
      "眞": 4938,
      "真": 4939,
      "眠": 4940,
      "眡": 4941,
      "眺": 4942,
      "眼": 4943,
      "眾": 4944,
      "着": 4945,
      "睛": 4946,
      "睡": 4947,
      "督": 4948,
      "睿": 4949,
      "瞋": 4950,
      "瞍": 4951,
      "瞑": 4952,
      "瞬": 4953,
      "瞳": 4954,
      "瞻": 4955,
      "瞿": 4956,
      "矛": 4957,
      "矢": 4958,
      "矣": 4959,
      "知": 4960,
      "矩": 4961,
      "短": 4962,
      "石": 4963,
      "矴": 4964,
      "码": 4965,
      "砂": 4966,
      "研": 4967,
      "砕": 4968,
      "砲": 4969,
      "破": 4970,
      "础": 4971,
      "硏": 4972,
      "硒": 4973,
      "硕": 4974,
      "硫": 4975,
      "硯": 4976,
      "硺": 4977,
      "碉": 4978,
      "碎": 4979,
      "碑": 4980,
      "碟": 4981,
      "碧": 4982,
      "碩": 4983,
      "碱": 4984,
      "確": 4985,
      "碼": 4986,
      "磊": 4987,
      "磐": 4988,
      "磨": 4989,
      "磯": 4990,
      "礁": 4991,
      "礎": 4992,
      "礒": 4993,
      "礬": 4994,
      "示": 4995,
      "礼": 4996,
      "社": 4997,
      "祀": 4998,
      "祁": 4999,
      "祇": 5000,
      "祈": 5001,
      "祎": 5002,
      "祐": 5003,
      "祕": 5004,
      "祖": 5005,
      "祜": 5006,
      "祝": 5007,
      "神": 5008,
      "祠": 5009,
      "祢": 5010,
      "祥": 5011,
      "票": 5012,
      "祭": 5013,
      "祺": 5014,
      "祿": 5015,
      "禁": 5016,
      "禄": 5017,
      "禅": 5018,
      "禍": 5019,
      "禎": 5020,
      "福": 5021,
      "禔": 5022,
      "禖": 5023,
      "禦": 5024,
      "禧": 5025,
      "禪": 5026,
      "禮": 5027,
      "禹": 5028,
      "禺": 5029,
      "离": 5030,
      "禽": 5031,
      "秀": 5032,
      "私": 5033,
      "秂": 5034,
      "秉": 5035,
      "秋": 5036,
      "种": 5037,
      "科": 5038,
      "秘": 5039,
      "租": 5040,
      "秦": 5041,
      "秩": 5042,
      "积": 5043,
      "称": 5044,
      "移": 5045,
      "程": 5046,
      "税": 5047,
      "稗": 5048,
      "稚": 5049,
      "稠": 5050,
      "種": 5051,
      "稱": 5052,
      "稲": 5053,
      "稹": 5054,
      "稻": 5055,
      "稿": 5056,
      "穂": 5057,
      "穆": 5058,
      "積": 5059,
      "穎": 5060,
      "穐": 5061,
      "穴": 5062,
      "究": 5063,
      "空": 5064,
      "穿": 5065,
      "突": 5066,
      "窃": 5067,
      "窈": 5068,
      "窓": 5069,
      "窕": 5070,
      "窖": 5071,
      "窝": 5072,
      "窦": 5073,
      "窪": 5074,
      "竇": 5075,
      "竈": 5076,
      "立": 5077,
      "站": 5078,
      "竜": 5079,
      "竟": 5080,
      "章": 5081,
      "童": 5082,
      "端": 5083,
      "競": 5084,
      "竹": 5085,
      "竾": 5086,
      "竿": 5087,
      "笋": 5088,
      "笑": 5089,
      "笔": 5090,
      "笙": 5091,
      "笛": 5092,
      "笠": 5093,
      "符": 5094,
      "笨": 5095,
      "第": 5096,
      "笳": 5097,
      "笹": 5098,
      "笺": 5099,
      "筆": 5100,
      "等": 5101,
      "筋": 5102,
      "筒": 5103,
      "答": 5104,
      "策": 5105,
      "筚": 5106,
      "筠": 5107,
      "箋": 5108,
      "箏": 5109,
      "算": 5110,
      "管": 5111,
      "箱": 5112,
      "箴": 5113,
      "箸": 5114,
      "節": 5115,
      "篁": 5116,
      "範": 5117,
      "篇": 5118,
      "築": 5119,
      "篋": 5120,
      "篠": 5121,
      "篡": 5122,
      "篥": 5123,
      "篪": 5124,
      "篮": 5125,
      "篳": 5126,
      "簕": 5127,
      "簡": 5128,
      "簿": 5129,
      "籍": 5130,
      "籙": 5131,
      "籠": 5132,
      "米": 5133,
      "类": 5134,
      "粉": 5135,
      "粒": 5136,
      "粕": 5137,
      "粗": 5138,
      "粟": 5139,
      "粥": 5140,
      "粱": 5141,
      "粵": 5142,
      "粹": 5143,
      "精": 5144,
      "粿": 5145,
      "糕": 5146,
      "糖": 5147,
      "糞": 5148,
      "糯": 5149,
      "糸": 5150,
      "系": 5151,
      "紀": 5152,
      "紂": 5153,
      "約": 5154,
      "紅": 5155,
      "紋": 5156,
      "納": 5157,
      "純": 5158,
      "紗": 5159,
      "紘": 5160,
      "紙": 5161,
      "級": 5162,
      "紛": 5163,
      "素": 5164,
      "索": 5165,
      "紧": 5166,
      "紫": 5167,
      "累": 5168,
      "細": 5169,
      "紹": 5170,
      "終": 5171,
      "組": 5172,
      "絆": 5173,
      "経": 5174,
      "結": 5175,
      "絕": 5176,
      "絠": 5177,
      "絡": 5178,
      "絢": 5179,
      "給": 5180,
      "統": 5181,
      "絲": 5182,
      "絵": 5183,
      "絶": 5184,
      "綏": 5185,
      "經": 5186,
      "継": 5187,
      "続": 5188,
      "綜": 5189,
      "綠": 5190,
      "綬": 5191,
      "維": 5192,
      "綰": 5193,
      "綱": 5194,
      "網": 5195,
      "綵": 5196,
      "綺": 5197,
      "綾": 5198,
      "綿": 5199,
      "緋": 5200,
      "総": 5201,
      "緑": 5202,
      "緒": 5203,
      "緖": 5204,
      "線": 5205,
      "締": 5206,
      "緣": 5207,
      "編": 5208,
      "緯": 5209,
      "練": 5210,
      "緻": 5211,
      "縁": 5212,
      "縄": 5213,
      "縛": 5214,
      "縞": 5215,
      "縣": 5216,
      "縮": 5217,
      "縱": 5218,
      "縷": 5219,
      "總": 5220,
      "績": 5221,
      "繁": 5222,
      "繋": 5223,
      "織": 5224,
      "繕": 5225,
      "繜": 5226,
      "繞": 5227,
      "繡": 5228,
      "繪": 5229,
      "繭": 5230,
      "繰": 5231,
      "繼": 5232,
      "纂": 5233,
      "續": 5234,
      "纏": 5235,
      "红": 5236,
      "纣": 5237,
      "约": 5238,
      "级": 5239,
      "纪": 5240,
      "纯": 5241,
      "纲": 5242,
      "纳": 5243,
      "纵": 5244,
      "线": 5245,
      "练": 5246,
      "组": 5247,
      "经": 5248,
      "绘": 5249,
      "络": 5250,
      "统": 5251,
      "绣": 5252,
      "绥": 5253,
      "继": 5254,
      "绩": 5255,
      "绮": 5256,
      "维": 5257,
      "绿": 5258,
      "缕": 5259,
      "编": 5260,
      "缘": 5261,
      "缩": 5262,
      "缺": 5263,
      "网": 5264,
      "罕": 5265,
      "罗": 5266,
      "罪": 5267,
      "署": 5268,
      "罷": 5269,
      "罽": 5270,
      "羅": 5271,
      "羆": 5272,
      "羊": 5273,
      "美": 5274,
      "羔": 5275,
      "羚": 5276,
      "群": 5277,
      "義": 5278,
      "羲": 5279,
      "羽": 5280,
      "翁": 5281,
      "翅": 5282,
      "翊": 5283,
      "翌": 5284,
      "習": 5285,
      "翔": 5286,
      "翠": 5287,
      "翦": 5288,
      "翰": 5289,
      "翻": 5290,
      "翼": 5291,
      "耀": 5292,
      "老": 5293,
      "考": 5294,
      "者": 5295,
      "耆": 5296,
      "而": 5297,
      "耍": 5298,
      "耐": 5299,
      "耕": 5300,
      "耳": 5301,
      "耶": 5302,
      "耽": 5303,
      "聂": 5304,
      "聊": 5305,
      "联": 5306,
      "聖": 5307,
      "聚": 5308,
      "聞": 5309,
      "聯": 5310,
      "聰": 5311,
      "聲": 5312,
      "職": 5313,
      "聽": 5314,
      "聿": 5315,
      "肃": 5316,
      "肅": 5317,
      "肇": 5318,
      "肉": 5319,
      "肏": 5320,
      "肖": 5321,
      "肚": 5322,
      "肠": 5323,
      "股": 5324,
      "肥": 5325,
      "肩": 5326,
      "肯": 5327,
      "育": 5328,
      "胆": 5329,
      "背": 5330,
      "胎": 5331,
      "胜": 5332,
      "胡": 5333,
      "胪": 5334,
      "胭": 5335,
      "胳": 5336,
      "胸": 5337,
      "能": 5338,
      "脂": 5339,
      "脇": 5340,
      "脉": 5341,
      "脊": 5342,
      "脑": 5343,
      "脖": 5344,
      "脚": 5345,
      "脞": 5346,
      "脣": 5347,
      "脩": 5348,
      "脯": 5349,
      "脰": 5350,
      "脱": 5351,
      "脳": 5352,
      "脸": 5353,
      "脾": 5354,
      "腐": 5355,
      "腔": 5356,
      "腕": 5357,
      "腦": 5358,
      "腰": 5359,
      "腳": 5360,
      "腸": 5361,
      "腹": 5362,
      "腻": 5363,
      "腿": 5364,
      "膀": 5365,
      "膏": 5366,
      "膛": 5367,
      "膜": 5368,
      "膠": 5369,
      "膳": 5370,
      "膺": 5371,
      "膾": 5372,
      "臂": 5373,
      "臆": 5374,
      "臈": 5375,
      "臘": 5376,
      "臚": 5377,
      "臟": 5378,
      "臣": 5379,
      "臧": 5380,
      "臨": 5381,
      "自": 5382,
      "臫": 5383,
      "臭": 5384,
      "至": 5385,
      "致": 5386,
      "臺": 5387,
      "臼": 5388,
      "舅": 5389,
      "與": 5390,
      "興": 5391,
      "舉": 5392,
      "舊": 5393,
      "舌": 5394,
      "舍": 5395,
      "舎": 5396,
      "舐": 5397,
      "舒": 5398,
      "舜": 5399,
      "舞": 5400,
      "舟": 5401,
      "航": 5402,
      "般": 5403,
      "舰": 5404,
      "船": 5405,
      "艇": 5406,
      "艦": 5407,
      "良": 5408,
      "色": 5409,
      "艳": 5410,
      "艶": 5411,
      "艷": 5412,
      "艸": 5413,
      "艹": 5414,
      "艺": 5415,
      "艾": 5416,
      "芋": 5417,
      "芒": 5418,
      "芝": 5419,
      "芥": 5420,
      "芦": 5421,
      "芭": 5422,
      "芮": 5423,
      "芯": 5424,
      "花": 5425,
      "芳": 5426,
      "芸": 5427,
      "芹": 5428,
      "芽": 5429,
      "苍": 5430,
      "苏": 5431,
      "苓": 5432,
      "苔": 5433,
      "苗": 5434,
      "苞": 5435,
      "若": 5436,
      "苦": 5437,
      "英": 5438,
      "苹": 5439,
      "苻": 5440,
      "苾": 5441,
      "茂": 5442,
      "范": 5443,
      "茄": 5444,
      "茅": 5445,
      "茎": 5446,
      "茗": 5447,
      "茜": 5448,
      "茨": 5449,
      "茫": 5450,
      "茱": 5451,
      "茲": 5452,
      "茶": 5453,
      "茸": 5454,
      "茹": 5455,
      "荀": 5456,
      "荃": 5457,
      "荇": 5458,
      "草": 5459,
      "荊": 5460,
      "荒": 5461,
      "荘": 5462,
      "荡": 5463,
      "荣": 5464,
      "荷": 5465,
      "荻": 5466,
      "莉": 5467,
      "莊": 5468,
      "莎": 5469,
      "莘": 5470,
      "莞": 5471,
      "莫": 5472,
      "莱": 5473,
      "莲": 5474,
      "莹": 5475,
      "莽": 5476,
      "莿": 5477,
      "菂": 5478,
      "菅": 5479,
      "菇": 5480,
      "菊": 5481,
      "菖": 5482,
      "菜": 5483,
      "菩": 5484,
      "華": 5485,
      "菰": 5486,
      "菱": 5487,
      "菲": 5488,
      "菴": 5489,
      "菻": 5490,
      "萊": 5491,
      "萋": 5492,
      "萌": 5493,
      "萍": 5494,
      "萝": 5495,
      "营": 5496,
      "萧": 5497,
      "萬": 5498,
      "萱": 5499,
      "落": 5500,
      "葆": 5501,
      "葉": 5502,
      "著": 5503,
      "葛": 5504,
      "董": 5505,
      "葫": 5506,
      "葯": 5507,
      "葰": 5508,
      "葱": 5509,
      "葵": 5510,
      "蒋": 5511,
      "蒍": 5512,
      "蒙": 5513,
      "蒯": 5514,
      "蒲": 5515,
      "蒸": 5516,
      "蒼": 5517,
      "蓋": 5518,
      "蓝": 5519,
      "蓬": 5520,
      "蓮": 5521,
      "蓼": 5522,
      "蔑": 5523,
      "蔗": 5524,
      "蔚": 5525,
      "蔡": 5526,
      "蔣": 5527,
      "蔥": 5528,
      "蔵": 5529,
      "蔷": 5530,
      "蕃": 5531,
      "蕉": 5532,
      "蕊": 5533,
      "蕎": 5534,
      "蕙": 5535,
      "蕤": 5536,
      "蕩": 5537,
      "蕭": 5538,
      "薄": 5539,
      "薇": 5540,
      "薔": 5541,
      "薛": 5542,
      "薤": 5543,
      "薩": 5544,
      "薫": 5545,
      "薬": 5546,
      "薰": 5547,
      "薱": 5548,
      "藁": 5549,
      "藍": 5550,
      "藏": 5551,
      "藝": 5552,
      "藤": 5553,
      "藥": 5554,
      "藩": 5555,
      "蘇": 5556,
      "蘭": 5557,
      "蘱": 5558,
      "虎": 5559,
      "虐": 5560,
      "處": 5561,
      "虖": 5562,
      "虚": 5563,
      "虛": 5564,
      "虞": 5565,
      "號": 5566,
      "虢": 5567,
      "虪": 5568,
      "虫": 5569,
      "虹": 5570,
      "虾": 5571,
      "蚕": 5572,
      "蚡": 5573,
      "蚵": 5574,
      "蛇": 5575,
      "蛋": 5576,
      "蛍": 5577,
      "蛙": 5578,
      "蛛": 5579,
      "蛭": 5580,
      "蛮": 5581,
      "蛾": 5582,
      "蜀": 5583,
      "蜂": 5584,
      "蜃": 5585,
      "蜘": 5586,
      "蜜": 5587,
      "蝕": 5588,
      "蝴": 5589,
      "蝶": 5590,
      "蝸": 5591,
      "螂": 5592,
      "融": 5593,
      "螢": 5594,
      "螣": 5595,
      "螳": 5596,
      "螺": 5597,
      "蟒": 5598,
      "蟜": 5599,
      "蟲": 5600,
      "蟹": 5601,
      "蟻": 5602,
      "蠔": 5603,
      "蠟": 5604,
      "蠡": 5605,
      "蠻": 5606,
      "血": 5607,
      "衆": 5608,
      "衊": 5609,
      "行": 5610,
      "衎": 5611,
      "衒": 5612,
      "術": 5613,
      "衕": 5614,
      "衖": 5615,
      "街": 5616,
      "衙": 5617,
      "衛": 5618,
      "衝": 5619,
      "衣": 5620,
      "衤": 5621,
      "补": 5622,
      "表": 5623,
      "衩": 5624,
      "衫": 5625,
      "衷": 5626,
      "衾": 5627,
      "袁": 5628,
      "袂": 5629,
      "袈": 5630,
      "袋": 5631,
      "袓": 5632,
      "袖": 5633,
      "被": 5634,
      "袭": 5635,
      "裁": 5636,
      "裂": 5637,
      "装": 5638,
      "裏": 5639,
      "裒": 5640,
      "裔": 5641,
      "裕": 5642,
      "補": 5643,
      "裝": 5644,
      "裡": 5645,
      "裤": 5646,
      "裨": 5647,
      "裳": 5648,
      "裴": 5649,
      "裸": 5650,
      "褒": 5651,
      "褓": 5652,
      "褻": 5653,
      "襄": 5654,
      "襲": 5655,
      "西": 5656,
      "要": 5657,
      "覆": 5658,
      "覇": 5659,
      "見": 5660,
      "規": 5661,
      "視": 5662,
      "覚": 5663,
      "覧": 5664,
      "親": 5665,
      "覲": 5666,
      "観": 5667,
      "覺": 5668,
      "覽": 5669,
      "觀": 5670,
      "见": 5671,
      "观": 5672,
      "规": 5673,
      "视": 5674,
      "览": 5675,
      "觉": 5676,
      "觐": 5677,
      "角": 5678,
      "解": 5679,
      "觴": 5680,
      "觸": 5681,
      "言": 5682,
      "訁": 5683,
      "計": 5684,
      "討": 5685,
      "訓": 5686,
      "託": 5687,
      "記": 5688,
      "訥": 5689,
      "訪": 5690,
      "設": 5691,
      "許": 5692,
      "訳": 5693,
      "訶": 5694,
      "註": 5695,
      "証": 5696,
      "詔": 5697,
      "評": 5698,
      "詞": 5699,
      "詠": 5700,
      "詢": 5701,
      "試": 5702,
      "詩": 5703,
      "話": 5704,
      "詳": 5705,
      "詹": 5706,
      "誅": 5707,
      "誌": 5708,
      "認": 5709,
      "誓": 5710,
      "誕": 5711,
      "誘": 5712,
      "語": 5713,
      "誠": 5714,
      "誡": 5715,
      "誥": 5716,
      "誦": 5717,
      "說": 5718,
      "説": 5719,
      "読": 5720,
      "誰": 5721,
      "調": 5722,
      "談": 5723,
      "請": 5724,
      "諏": 5725,
      "論": 5726,
      "諧": 5727,
      "諭": 5728,
      "諱": 5729,
      "諸": 5730,
      "謁": 5731,
      "謂": 5732,
      "謊": 5733,
      "謎": 5734,
      "謐": 5735,
      "謚": 5736,
      "講": 5737,
      "謝": 5738,
      "謡": 5739,
      "謳": 5740,
      "識": 5741,
      "譚": 5742,
      "譜": 5743,
      "警": 5744,
      "譯": 5745,
      "議": 5746,
      "譵": 5747,
      "護": 5748,
      "譽": 5749,
      "讀": 5750,
      "讃": 5751,
      "變": 5752,
      "讓": 5753,
      "讚": 5754,
      "计": 5755,
      "认": 5756,
      "让": 5757,
      "议": 5758,
      "讯": 5759,
      "记": 5760,
      "讳": 5761,
      "讷": 5762,
      "许": 5763,
      "论": 5764,
      "设": 5765,
      "访": 5766,
      "证": 5767,
      "识": 5768,
      "词": 5769,
      "译": 5770,
      "诗": 5771,
      "诚": 5772,
      "话": 5773,
      "诠": 5774,
      "语": 5775,
      "说": 5776,
      "请": 5777,
      "诺": 5778,
      "读": 5779,
      "谁": 5780,
      "调": 5781,
      "谈": 5782,
      "谋": 5783,
      "谐": 5784,
      "谟": 5785,
      "谢": 5786,
      "谣": 5787,
      "谥": 5788,
      "谭": 5789,
      "谱": 5790,
      "谷": 5791,
      "豆": 5792,
      "豊": 5793,
      "豐": 5794,
      "豕": 5795,
      "豚": 5796,
      "象": 5797,
      "豢": 5798,
      "豪": 5799,
      "豫": 5800,
      "豬": 5801,
      "豰": 5802,
      "豸": 5803,
      "豹": 5804,
      "豺": 5805,
      "豻": 5806,
      "貃": 5807,
      "貅": 5808,
      "貉": 5809,
      "貊": 5810,
      "貓": 5811,
      "貔": 5812,
      "貘": 5813,
      "貝": 5814,
      "貞": 5815,
      "財": 5816,
      "貢": 5817,
      "貧": 5818,
      "貨": 5819,
      "販": 5820,
      "貪": 5821,
      "貫": 5822,
      "貳": 5823,
      "貴": 5824,
      "買": 5825,
      "費": 5826,
      "賀": 5827,
      "資": 5828,
      "賈": 5829,
      "賊": 5830,
      "賓": 5831,
      "賞": 5832,
      "賢": 5833,
      "賣": 5834,
      "賦": 5835,
      "質": 5836,
      "賴": 5837,
      "賽": 5838,
      "贈": 5839,
      "贊": 5840,
      "贝": 5841,
      "贞": 5842,
      "贡": 5843,
      "财": 5844,
      "贤": 5845,
      "货": 5846,
      "质": 5847,
      "贪": 5848,
      "贵": 5849,
      "贸": 5850,
      "费": 5851,
      "贺": 5852,
      "贼": 5853,
      "贾": 5854,
      "贿": 5855,
      "资": 5856,
      "赐": 5857,
      "赑": 5858,
      "赓": 5859,
      "赖": 5860,
      "赛": 5861,
      "赞": 5862,
      "赤": 5863,
      "赫": 5864,
      "走": 5865,
      "赱": 5866,
      "赴": 5867,
      "赵": 5868,
      "赶": 5869,
      "起": 5870,
      "趁": 5871,
      "超": 5872,
      "越": 5873,
      "趙": 5874,
      "趨": 5875,
      "足": 5876,
      "趾": 5877,
      "跃": 5878,
      "距": 5879,
      "跟": 5880,
      "跡": 5881,
      "跪": 5882,
      "路": 5883,
      "跳": 5884,
      "践": 5885,
      "踊": 5886,
      "踏": 5887,
      "踪": 5888,
      "蹟": 5889,
      "蹴": 5890,
      "身": 5891,
      "躺": 5892,
      "車": 5893,
      "軋": 5894,
      "軌": 5895,
      "軍": 5896,
      "軒": 5897,
      "軟": 5898,
      "転": 5899,
      "軻": 5900,
      "軽": 5901,
      "軾": 5902,
      "載": 5903,
      "輔": 5904,
      "輕": 5905,
      "輛": 5906,
      "輝": 5907,
      "輩": 5908,
      "輪": 5909,
      "輯": 5910,
      "輿": 5911,
      "轄": 5912,
      "轅": 5913,
      "轉": 5914,
      "轍": 5915,
      "车": 5916,
      "轨": 5917,
      "轩": 5918,
      "轮": 5919,
      "载": 5920,
      "较": 5921,
      "辉": 5922,
      "辑": 5923,
      "辛": 5924,
      "辜": 5925,
      "辞": 5926,
      "辟": 5927,
      "辣": 5928,
      "辦": 5929,
      "辨": 5930,
      "辭": 5931,
      "辰": 5932,
      "農": 5933,
      "边": 5934,
      "辺": 5935,
      "辻": 5936,
      "込": 5937,
      "辽": 5938,
      "达": 5939,
      "迅": 5940,
      "过": 5941,
      "迎": 5942,
      "运": 5943,
      "近": 5944,
      "返": 5945,
      "这": 5946,
      "进": 5947,
      "远": 5948,
      "连": 5949,
      "迣": 5950,
      "迦": 5951,
      "迪": 5952,
      "迫": 5953,
      "述": 5954,
      "迷": 5955,
      "迺": 5956,
      "迻": 5957,
      "追": 5958,
      "退": 5959,
      "送": 5960,
      "逃": 5961,
      "逆": 5962,
      "逊": 5963,
      "逍": 5964,
      "逐": 5965,
      "途": 5966,
      "這": 5967,
      "通": 5968,
      "逛": 5969,
      "逝": 5970,
      "速": 5971,
      "造": 5972,
      "逢": 5973,
      "連": 5974,
      "週": 5975,
      "進": 5976,
      "逵": 5977,
      "逸": 5978,
      "逾": 5979,
      "遇": 5980,
      "遊": 5981,
      "運": 5982,
      "過": 5983,
      "遐": 5984,
      "道": 5985,
      "達": 5986,
      "遗": 5987,
      "遜": 5988,
      "遠": 5989,
      "遣": 5990,
      "遥": 5991,
      "適": 5992,
      "遭": 5993,
      "遮": 5994,
      "遵": 5995,
      "遷": 5996,
      "選": 5997,
      "遺": 5998,
      "避": 5999,
      "還": 6000,
      "邇": 6001,
      "邉": 6002,
      "邊": 6003,
      "邑": 6004,
      "邓": 6005,
      "邕": 6006,
      "邘": 6007,
      "邢": 6008,
      "那": 6009,
      "邦": 6010,
      "邪": 6011,
      "邬": 6012,
      "邮": 6013,
      "邱": 6014,
      "邲": 6015,
      "邻": 6016,
      "邽": 6017,
      "郁": 6018,
      "郊": 6019,
      "郎": 6020,
      "郑": 6021,
      "郛": 6022,
      "郝": 6023,
      "郞": 6024,
      "郡": 6025,
      "郢": 6026,
      "郤": 6027,
      "部": 6028,
      "郪": 6029,
      "郫": 6030,
      "郭": 6031,
      "郵": 6032,
      "郷": 6033,
      "都": 6034,
      "鄂": 6035,
      "鄉": 6036,
      "鄒": 6037,
      "鄕": 6038,
      "鄢": 6039,
      "鄧": 6040,
      "鄭": 6041,
      "鄯": 6042,
      "鄰": 6043,
      "配": 6044,
      "酒": 6045,
      "酣": 6046,
      "酥": 6047,
      "酱": 6048,
      "酷": 6049,
      "酸": 6050,
      "酿": 6051,
      "醉": 6052,
      "醍": 6053,
      "醐": 6054,
      "醒": 6055,
      "醜": 6056,
      "醤": 6057,
      "醫": 6058,
      "醬": 6059,
      "采": 6060,
      "释": 6061,
      "里": 6062,
      "重": 6063,
      "野": 6064,
      "量": 6065,
      "金": 6066,
      "針": 6067,
      "釣": 6068,
      "釵": 6069,
      "鈔": 6070,
      "鈞": 6071,
      "鈴": 6072,
      "鉂": 6073,
      "鉄": 6074,
      "鉍": 6075,
      "鉗": 6076,
      "鉢": 6077,
      "鉤": 6078,
      "鉱": 6079,
      "鉴": 6080,
      "銀": 6081,
      "銃": 6082,
      "銅": 6083,
      "銘": 6084,
      "銭": 6085,
      "鋌": 6086,
      "鋒": 6087,
      "鋭": 6088,
      "鋼": 6089,
      "錄": 6090,
      "錐": 6091,
      "錚": 6092,
      "錡": 6093,
      "錢": 6094,
      "錦": 6095,
      "錫": 6096,
      "錬": 6097,
      "錯": 6098,
      "録": 6099,
      "鍋": 6100,
      "鍛": 6101,
      "鍵": 6102,
      "鍹": 6103,
      "鍾": 6104,
      "鎌": 6105,
      "鎖": 6106,
      "鎚": 6107,
      "鎭": 6108,
      "鎮": 6109,
      "鏗": 6110,
      "鏞": 6111,
      "鏡": 6112,
      "鏤": 6113,
      "鐘": 6114,
      "鐵": 6115,
      "鐸": 6116,
      "鑄": 6117,
      "鑑": 6118,
      "鑒": 6119,
      "鑫": 6120,
      "鑴": 6121,
      "钊": 6122,
      "钓": 6123,
      "钟": 6124,
      "钢": 6125,
      "钧": 6126,
      "钩": 6127,
      "钮": 6128,
      "钰": 6129,
      "钱": 6130,
      "钵": 6131,
      "铁": 6132,
      "铃": 6133,
      "铜": 6134,
      "铤": 6135,
      "铭": 6136,
      "银": 6137,
      "铸": 6138,
      "锋": 6139,
      "错": 6140,
      "锡": 6141,
      "锥": 6142,
      "锦": 6143,
      "锺": 6144,
      "镇": 6145,
      "長": 6146,
      "长": 6147,
      "門": 6148,
      "閃": 6149,
      "閉": 6150,
      "開": 6151,
      "閎": 6152,
      "閑": 6153,
      "間": 6154,
      "関": 6155,
      "閣": 6156,
      "閥": 6157,
      "閦": 6158,
      "閭": 6159,
      "閻": 6160,
      "闇": 6161,
      "闊": 6162,
      "闍": 6163,
      "闕": 6164,
      "闖": 6165,
      "闘": 6166,
      "關": 6167,
      "闥": 6168,
      "门": 6169,
      "闪": 6170,
      "闭": 6171,
      "问": 6172,
      "间": 6173,
      "闻": 6174,
      "闽": 6175,
      "阀": 6176,
      "阁": 6177,
      "阎": 6178,
      "阔": 6179,
      "阜": 6180,
      "阝": 6181,
      "队": 6182,
      "阪": 6183,
      "阮": 6184,
      "阯": 6185,
      "防": 6186,
      "阳": 6187,
      "阴": 6188,
      "阵": 6189,
      "阿": 6190,
      "陀": 6191,
      "陂": 6192,
      "附": 6193,
      "际": 6194,
      "陆": 6195,
      "陇": 6196,
      "陈": 6197,
      "陋": 6198,
      "降": 6199,
      "限": 6200,
      "陛": 6201,
      "陟": 6202,
      "陡": 6203,
      "院": 6204,
      "陣": 6205,
      "陥": 6206,
      "险": 6207,
      "陰": 6208,
      "陳": 6209,
      "陵": 6210,
      "陶": 6211,
      "陸": 6212,
      "険": 6213,
      "陽": 6214,
      "隅": 6215,
      "隆": 6216,
      "隊": 6217,
      "隍": 6218,
      "階": 6219,
      "随": 6220,
      "隐": 6221,
      "隔": 6222,
      "際": 6223,
      "障": 6224,
      "隠": 6225,
      "隣": 6226,
      "隨": 6227,
      "險": 6228,
      "隱": 6229,
      "隴": 6230,
      "隻": 6231,
      "隽": 6232,
      "难": 6233,
      "雀": 6234,
      "雁": 6235,
      "雄": 6236,
      "雅": 6237,
      "集": 6238,
      "雉": 6239,
      "雌": 6240,
      "雍": 6241,
      "雑": 6242,
      "雒": 6243,
      "雕": 6244,
      "雙": 6245,
      "雛": 6246,
      "雜": 6247,
      "雞": 6248,
      "離": 6249,
      "難": 6250,
      "雨": 6251,
      "雪": 6252,
      "雫": 6253,
      "雯": 6254,
      "雲": 6255,
      "零": 6256,
      "雷": 6257,
      "電": 6258,
      "震": 6259,
      "霊": 6260,
      "霍": 6261,
      "霏": 6262,
      "霑": 6263,
      "霖": 6264,
      "霞": 6265,
      "露": 6266,
      "霸": 6267,
      "霹": 6268,
      "靂": 6269,
      "靈": 6270,
      "靑": 6271,
      "青": 6272,
      "靔": 6273,
      "靕": 6274,
      "靖": 6275,
      "靗": 6276,
      "静": 6277,
      "靚": 6278,
      "靜": 6279,
      "非": 6280,
      "面": 6281,
      "靣": 6282,
      "靤": 6283,
      "靨": 6284,
      "革": 6285,
      "靪": 6286,
      "靫": 6287,
      "靮": 6288,
      "靳": 6289,
      "靴": 6290,
      "鞍": 6291,
      "鞏": 6292,
      "鞘": 6293,
      "鞠": 6294,
      "鞭": 6295,
      "鞮": 6296,
      "韓": 6297,
      "韦": 6298,
      "韩": 6299,
      "韭": 6300,
      "音": 6301,
      "韵": 6302,
      "韶": 6303,
      "韻": 6304,
      "響": 6305,
      "頁": 6306,
      "頂": 6307,
      "頃": 6308,
      "項": 6309,
      "順": 6310,
      "須": 6311,
      "頊": 6312,
      "頎": 6313,
      "頑": 6314,
      "頖": 6315,
      "領": 6316,
      "頛": 6317,
      "頡": 6318,
      "頭": 6319,
      "頹": 6320,
      "頼": 6321,
      "顆": 6322,
      "題": 6323,
      "額": 6324,
      "顎": 6325,
      "顏": 6326,
      "顓": 6327,
      "顔": 6328,
      "顕": 6329,
      "願": 6330,
      "類": 6331,
      "顧": 6332,
      "顯": 6333,
      "页": 6334,
      "顶": 6335,
      "顷": 6336,
      "顺": 6337,
      "须": 6338,
      "颉": 6339,
      "颗": 6340,
      "题": 6341,
      "额": 6342,
      "颠": 6343,
      "風": 6344,
      "颯": 6345,
      "飄": 6346,
      "风": 6347,
      "飛": 6348,
      "飞": 6349,
      "食": 6350,
      "飠": 6351,
      "飢": 6352,
      "飮": 6353,
      "飯": 6354,
      "飲": 6355,
      "飾": 6356,
      "餅": 6357,
      "養": 6358,
      "餐": 6359,
      "餓": 6360,
      "餘": 6361,
      "餡": 6362,
      "館": 6363,
      "饉": 6364,
      "饒": 6365,
      "饗": 6366,
      "饣": 6367,
      "饥": 6368,
      "饭": 6369,
      "饮": 6370,
      "饼": 6371,
      "馆": 6372,
      "首": 6373,
      "香": 6374,
      "馨": 6375,
      "馬": 6376,
      "馮": 6377,
      "馳": 6378,
      "駁": 6379,
      "駄": 6380,
      "駆": 6381,
      "駈": 6382,
      "駑": 6383,
      "駒": 6384,
      "駕": 6385,
      "駛": 6386,
      "駮": 6387,
      "駰": 6388,
      "駱": 6389,
      "駿": 6390,
      "騎": 6391,
      "騒": 6392,
      "験": 6393,
      "騙": 6394,
      "騨": 6395,
      "驒": 6396,
      "驗": 6397,
      "驚": 6398,
      "驥": 6399,
      "马": 6400,
      "驰": 6401,
      "驻": 6402,
      "驼": 6403,
      "驾": 6404,
      "骅": 6405,
      "骑": 6406,
      "骗": 6407,
      "骞": 6408,
      "骨": 6409,
      "骸": 6410,
      "髎": 6411,
      "髏": 6412,
      "髑": 6413,
      "髓": 6414,
      "體": 6415,
      "高": 6416,
      "髙": 6417,
      "髪": 6418,
      "髮": 6419,
      "髲": 6420,
      "髳": 6421,
      "鬐": 6422,
      "鬘": 6423,
      "鬢": 6424,
      "鬥": 6425,
      "鬱": 6426,
      "鬹": 6427,
      "鬼": 6428,
      "魁": 6429,
      "魂": 6430,
      "魃": 6431,
      "魄": 6432,
      "魎": 6433,
      "魏": 6434,
      "魔": 6435,
      "魚": 6436,
      "魡": 6437,
      "魢": 6438,
      "魯": 6439,
      "魰": 6440,
      "鮃": 6441,
      "鮫": 6442,
      "鮮": 6443,
      "鱗": 6444,
      "鱼": 6445,
      "鲁": 6446,
      "鲍": 6447,
      "鲜": 6448,
      "鳥": 6449,
      "鳩": 6450,
      "鳳": 6451,
      "鳴": 6452,
      "鴛": 6453,
      "鴦": 6454,
      "鴨": 6455,
      "鴻": 6456,
      "鵬": 6457,
      "鵺": 6458,
      "鶯": 6459,
      "鶴": 6460,
      "鷲": 6461,
      "鷹": 6462,
      "鸞": 6463,
      "鸟": 6464,
      "鸡": 6465,
      "鸣": 6466,
      "鸭": 6467,
      "鸽": 6468,
      "鸾": 6469,
      "鸿": 6470,
      "鹉": 6471,
      "鹏": 6472,
      "鹤": 6473,
      "鹦": 6474,
      "鹱": 6475,
      "鹵": 6476,
      "鹹": 6477,
      "鹽": 6478,
      "鹿": 6479,
      "麈": 6480,
      "麋": 6481,
      "麒": 6482,
      "麓": 6483,
      "麗": 6484,
      "麟": 6485,
      "麥": 6486,
      "麦": 6487,
      "麪": 6488,
      "麴": 6489,
      "麵": 6490,
      "麹": 6491,
      "麺": 6492,
      "麻": 6493,
      "麼": 6494,
      "麽": 6495,
      "麿": 6496,
      "黃": 6497,
      "黄": 6498,
      "黌": 6499,
      "黎": 6500,
      "黑": 6501,
      "黒": 6502,
      "黔": 6503,
      "默": 6504,
      "黙": 6505,
      "黛": 6506,
      "點": 6507,
      "黨": 6508,
      "鼉": 6509,
      "鼍": 6510,
      "鼎": 6511,
      "鼓": 6512,
      "鼠": 6513,
      "鼻": 6514,
      "齊": 6515,
      "齋": 6516,
      "齎": 6517,
      "齐": 6518,
      "齒": 6519,
      "齢": 6520,
      "齣": 6521,
      "齦": 6522,
      "齧": 6523,
      "龍": 6524,
      "龙": 6525,
      "龚": 6526,
      "龜": 6527,
      "龢": 6528,
      "ꙋ": 6529,
      "ꙑ": 6530,
      "Ꙗ": 6531,
      "ꙗ": 6532,
      "Ꙙ": 6533,
      "ꙙ": 6534,
      "Ꚍ": 6535,
      "ꚍ": 6536,
      "Ꜣ": 6537,
      "ꜣ": 6538,
      "ꜥ": 6539,
      "ꜭ": 6540,
      "ꜯ": 6541,
      "Ꝇ": 6542,
      "ꝇ": 6543,
      "Ꝏ": 6544,
      "ꝏ": 6545,
      "Ᵹ": 6546,
      "Ꞌ": 6547,
      "ꞌ": 6548,
      "Ɥ": 6549,
      "ꞑ": 6550,
      "ꟷ": 6551,
      "ꟸ": 6552,
      "ꦏ": 6553,
      "ꦨ": 6554,
      "ꦮ": 6555,
      "ꦰ": 6556,
      "ꦴ": 6557,
      "ꦶ": 6558,
      "가": 6559,
      "각": 6560,
      "간": 6561,
      "갈": 6562,
      "감": 6563,
      "갑": 6564,
      "강": 6565,
      "같": 6566,
      "개": 6567,
      "갱": 6568,
      "갸": 6569,
      "거": 6570,
      "건": 6571,
      "걷": 6572,
      "걸": 6573,
      "검": 6574,
      "것": 6575,
      "게": 6576,
      "겨": 6577,
      "격": 6578,
      "견": 6579,
      "겹": 6580,
      "경": 6581,
      "계": 6582,
      "고": 6583,
      "골": 6584,
      "곳": 6585,
      "공": 6586,
      "과": 6587,
      "곽": 6588,
      "관": 6589,
      "광": 6590,
      "괴": 6591,
      "교": 6592,
      "구": 6593,
      "국": 6594,
      "군": 6595,
      "굳": 6596,
      "굿": 6597,
      "궁": 6598,
      "권": 6599,
      "귀": 6600,
      "규": 6601,
      "균": 6602,
      "그": 6603,
      "극": 6604,
      "근": 6605,
      "글": 6606,
      "금": 6607,
      "급": 6608,
      "기": 6609,
      "길": 6610,
      "김": 6611,
      "깃": 6612,
      "까": 6613,
      "깔": 6614,
      "깨": 6615,
      "꺼": 6616,
      "꺾": 6617,
      "껌": 6618,
      "꼭": 6619,
      "꽃": 6620,
      "꾸": 6621,
      "꿈": 6622,
      "꿔": 6623,
      "끝": 6624,
      "끼": 6625,
      "나": 6626,
      "낙": 6627,
      "난": 6628,
      "날": 6629,
      "남": 6630,
      "낭": 6631,
      "낯": 6632,
      "내": 6633,
      "냥": 6634,
      "너": 6635,
      "넋": 6636,
      "널": 6637,
      "네": 6638,
      "넬": 6639,
      "녀": 6640,
      "년": 6641,
      "녕": 6642,
      "노": 6643,
      "녹": 6644,
      "놀": 6645,
      "놈": 6646,
      "농": 6647,
      "놓": 6648,
      "누": 6649,
      "눈": 6650,
      "뉴": 6651,
      "느": 6652,
      "늑": 6653,
      "는": 6654,
      "늘": 6655,
      "니": 6656,
      "닉": 6657,
      "닐": 6658,
      "님": 6659,
      "다": 6660,
      "단": 6661,
      "달": 6662,
      "닮": 6663,
      "담": 6664,
      "당": 6665,
      "대": 6666,
      "더": 6667,
      "덕": 6668,
      "데": 6669,
      "덴": 6670,
      "뎐": 6671,
      "도": 6672,
      "독": 6673,
      "돈": 6674,
      "돌": 6675,
      "돔": 6676,
      "돗": 6677,
      "동": 6678,
      "돼": 6679,
      "됐": 6680,
      "되": 6681,
      "두": 6682,
      "둑": 6683,
      "둠": 6684,
      "뒤": 6685,
      "듀": 6686,
      "드": 6687,
      "득": 6688,
      "든": 6689,
      "들": 6690,
      "듭": 6691,
      "듯": 6692,
      "등": 6693,
      "디": 6694,
      "딥": 6695,
      "따": 6696,
      "딱": 6697,
      "딸": 6698,
      "땅": 6699,
      "때": 6700,
      "떠": 6701,
      "떡": 6702,
      "떻": 6703,
      "또": 6704,
      "뛰": 6705,
      "뜨": 6706,
      "띠": 6707,
      "라": 6708,
      "락": 6709,
      "란": 6710,
      "람": 6711,
      "랍": 6712,
      "랑": 6713,
      "래": 6714,
      "램": 6715,
      "랴": 6716,
      "량": 6717,
      "러": 6718,
      "런": 6719,
      "럴": 6720,
      "럼": 6721,
      "럿": 6722,
      "렁": 6723,
      "레": 6724,
      "렉": 6725,
      "려": 6726,
      "력": 6727,
      "련": 6728,
      "렬": 6729,
      "령": 6730,
      "로": 6731,
      "록": 6732,
      "론": 6733,
      "롱": 6734,
      "뢰": 6735,
      "료": 6736,
      "룡": 6737,
      "루": 6738,
      "룸": 6739,
      "룹": 6740,
      "류": 6741,
      "륙": 6742,
      "륜": 6743,
      "르": 6744,
      "를": 6745,
      "름": 6746,
      "릉": 6747,
      "리": 6748,
      "릭": 6749,
      "린": 6750,
      "림": 6751,
      "립": 6752,
      "릿": 6753,
      "마": 6754,
      "막": 6755,
      "만": 6756,
      "말": 6757,
      "맛": 6758,
      "망": 6759,
      "매": 6760,
      "맥": 6761,
      "맨": 6762,
      "맷": 6763,
      "맹": 6764,
      "머": 6765,
      "먹": 6766,
      "먼": 6767,
      "메": 6768,
      "멘": 6769,
      "멜": 6770,
      "면": 6771,
      "명": 6772,
      "모": 6773,
      "목": 6774,
      "몬": 6775,
      "몰": 6776,
      "몸": 6777,
      "못": 6778,
      "묘": 6779,
      "무": 6780,
      "문": 6781,
      "물": 6782,
      "뭉": 6783,
      "뮤": 6784,
      "므": 6785,
      "미": 6786,
      "믹": 6787,
      "민": 6788,
      "밀": 6789,
      "밍": 6790,
      "바": 6791,
      "박": 6792,
      "반": 6793,
      "발": 6794,
      "밟": 6795,
      "밤": 6796,
      "밥": 6797,
      "방": 6798,
      "배": 6799,
      "백": 6800,
      "버": 6801,
      "번": 6802,
      "벌": 6803,
      "범": 6804,
      "법": 6805,
      "벗": 6806,
      "벙": 6807,
      "베": 6808,
      "벨": 6809,
      "벽": 6810,
      "변": 6811,
      "별": 6812,
      "병": 6813,
      "보": 6814,
      "복": 6815,
      "본": 6816,
      "볼": 6817,
      "봄": 6818,
      "봉": 6819,
      "봤": 6820,
      "부": 6821,
      "북": 6822,
      "분": 6823,
      "불": 6824,
      "붐": 6825,
      "붕": 6826,
      "뷰": 6827,
      "브": 6828,
      "비": 6829,
      "빅": 6830,
      "빈": 6831,
      "빔": 6832,
      "빙": 6833,
      "빛": 6834,
      "빠": 6835,
      "빵": 6836,
      "뺑": 6837,
      "뼉": 6838,
      "뿌": 6839,
      "뿐": 6840,
      "쁜": 6841,
      "삠": 6842,
      "사": 6843,
      "삭": 6844,
      "산": 6845,
      "살": 6846,
      "삶": 6847,
      "삼": 6848,
      "상": 6849,
      "새": 6850,
      "색": 6851,
      "샘": 6852,
      "생": 6853,
      "서": 6854,
      "석": 6855,
      "선": 6856,
      "설": 6857,
      "섬": 6858,
      "섯": 6859,
      "성": 6860,
      "세": 6861,
      "센": 6862,
      "션": 6863,
      "셜": 6864,
      "소": 6865,
      "속": 6866,
      "손": 6867,
      "솔": 6868,
      "솟": 6869,
      "송": 6870,
      "수": 6871,
      "숙": 6872,
      "순": 6873,
      "술": 6874,
      "숨": 6875,
      "숭": 6876,
      "숯": 6877,
      "쉽": 6878,
      "슈": 6879,
      "스": 6880,
      "슨": 6881,
      "슬": 6882,
      "승": 6883,
      "시": 6884,
      "식": 6885,
      "신": 6886,
      "실": 6887,
      "심": 6888,
      "십": 6889,
      "싶": 6890,
      "싸": 6891,
      "쌀": 6892,
      "쌈": 6893,
      "쌉": 6894,
      "쌍": 6895,
      "썸": 6896,
      "씨": 6897,
      "씽": 6898,
      "아": 6899,
      "악": 6900,
      "안": 6901,
      "앉": 6902,
      "않": 6903,
      "알": 6904,
      "앙": 6905,
      "애": 6906,
      "앤": 6907,
      "앵": 6908,
      "야": 6909,
      "약": 6910,
      "얄": 6911,
      "양": 6912,
      "어": 6913,
      "억": 6914,
      "언": 6915,
      "얼": 6916,
      "얽": 6917,
      "엄": 6918,
      "업": 6919,
      "없": 6920,
      "엇": 6921,
      "었": 6922,
      "에": 6923,
      "엑": 6924,
      "엔": 6925,
      "엘": 6926,
      "엠": 6927,
      "여": 6928,
      "역": 6929,
      "연": 6930,
      "열": 6931,
      "염": 6932,
      "엽": 6933,
      "영": 6934,
      "예": 6935,
      "옛": 6936,
      "오": 6937,
      "옥": 6938,
      "온": 6939,
      "옴": 6940,
      "옵": 6941,
      "옷": 6942,
      "옹": 6943,
      "와": 6944,
      "완": 6945,
      "왕": 6946,
      "왜": 6947,
      "외": 6948,
      "요": 6949,
      "욕": 6950,
      "용": 6951,
      "우": 6952,
      "욱": 6953,
      "운": 6954,
      "울": 6955,
      "움": 6956,
      "웃": 6957,
      "웅": 6958,
      "웇": 6959,
      "워": 6960,
      "원": 6961,
      "월": 6962,
      "웨": 6963,
      "위": 6964,
      "유": 6965,
      "육": 6966,
      "윤": 6967,
      "율": 6968,
      "융": 6969,
      "으": 6970,
      "은": 6971,
      "을": 6972,
      "음": 6973,
      "읍": 6974,
      "읏": 6975,
      "응": 6976,
      "의": 6977,
      "이": 6978,
      "익": 6979,
      "인": 6980,
      "일": 6981,
      "임": 6982,
      "입": 6983,
      "잇": 6984,
      "있": 6985,
      "잊": 6986,
      "자": 6987,
      "작": 6988,
      "잘": 6989,
      "잠": 6990,
      "잡": 6991,
      "장": 6992,
      "재": 6993,
      "쟁": 6994,
      "저": 6995,
      "적": 6996,
      "전": 6997,
      "절": 6998,
      "젊": 6999,
      "점": 7000,
      "접": 7001,
      "정": 7002,
      "제": 7003,
      "젤": 7004,
      "져": 7005,
      "젼": 7006,
      "조": 7007,
      "족": 7008,
      "존": 7009,
      "졸": 7010,
      "종": 7011,
      "좋": 7012,
      "좌": 7013,
      "죄": 7014,
      "주": 7015,
      "죽": 7016,
      "준": 7017,
      "줄": 7018,
      "중": 7019,
      "줘": 7020,
      "즈": 7021,
      "즌": 7022,
      "증": 7023,
      "지": 7024,
      "직": 7025,
      "진": 7026,
      "짇": 7027,
      "질": 7028,
      "집": 7029,
      "짓": 7030,
      "짝": 7031,
      "짧": 7032,
      "짱": 7033,
      "쩌": 7034,
      "쫄": 7035,
      "차": 7036,
      "찰": 7037,
      "찹": 7038,
      "창": 7039,
      "찾": 7040,
      "채": 7041,
      "책": 7042,
      "처": 7043,
      "척": 7044,
      "천": 7045,
      "철": 7046,
      "청": 7047,
      "체": 7048,
      "첼": 7049,
      "쳐": 7050,
      "초": 7051,
      "총": 7052,
      "최": 7053,
      "추": 7054,
      "춘": 7055,
      "출": 7056,
      "춤": 7057,
      "충": 7058,
      "츠": 7059,
      "치": 7060,
      "친": 7061,
      "칠": 7062,
      "칡": 7063,
      "침": 7064,
      "카": 7065,
      "칸": 7066,
      "칼": 7067,
      "캅": 7068,
      "캣": 7069,
      "커": 7070,
      "컨": 7071,
      "컬": 7072,
      "컴": 7073,
      "케": 7074,
      "켓": 7075,
      "코": 7076,
      "콘": 7077,
      "콜": 7078,
      "쿠": 7079,
      "쿤": 7080,
      "쿨": 7081,
      "쿰": 7082,
      "큐": 7083,
      "크": 7084,
      "클": 7085,
      "키": 7086,
      "킥": 7087,
      "킬": 7088,
      "타": 7089,
      "탁": 7090,
      "탄": 7091,
      "탈": 7092,
      "탐": 7093,
      "탕": 7094,
      "태": 7095,
      "택": 7096,
      "터": 7097,
      "테": 7098,
      "토": 7099,
      "톱": 7100,
      "통": 7101,
      "퇴": 7102,
      "투": 7103,
      "튜": 7104,
      "트": 7105,
      "특": 7106,
      "튼": 7107,
      "티": 7108,
      "틴": 7109,
      "팅": 7110,
      "파": 7111,
      "판": 7112,
      "팔": 7113,
      "팥": 7114,
      "패": 7115,
      "팩": 7116,
      "퍼": 7117,
      "펀": 7118,
      "페": 7119,
      "편": 7120,
      "평": 7121,
      "폐": 7122,
      "포": 7123,
      "폭": 7124,
      "폴": 7125,
      "표": 7126,
      "푸": 7127,
      "풀": 7128,
      "품": 7129,
      "풍": 7130,
      "프": 7131,
      "픈": 7132,
      "플": 7133,
      "피": 7134,
      "필": 7135,
      "핑": 7136,
      "하": 7137,
      "학": 7138,
      "한": 7139,
      "할": 7140,
      "함": 7141,
      "합": 7142,
      "항": 7143,
      "해": 7144,
      "행": 7145,
      "향": 7146,
      "허": 7147,
      "헌": 7148,
      "헛": 7149,
      "헤": 7150,
      "혀": 7151,
      "혁": 7152,
      "현": 7153,
      "혈": 7154,
      "협": 7155,
      "형": 7156,
      "혜": 7157,
      "호": 7158,
      "혹": 7159,
      "혼": 7160,
      "홈": 7161,
      "홍": 7162,
      "화": 7163,
      "확": 7164,
      "환": 7165,
      "활": 7166,
      "황": 7167,
      "회": 7168,
      "효": 7169,
      "후": 7170,
      "훈": 7171,
      "휘": 7172,
      "휴": 7173,
      "흐": 7174,
      "흘": 7175,
      "흥": 7176,
      "희": 7177,
      "히": 7178,
      "힌": 7179,
      "": 7180,
      "": 7181,
      "": 7182,
      "": 7183,
      "": 7184,
      "": 7185,
      "": 7186,
      "": 7187,
      "": 7188,
      "": 7189,
      "﨑": 7190,
      "ﬀ": 7191,
      "ﬁ": 7192,
      "ﬂ": 7193,
      "ﬓ": 7194,
      "ﬔ": 7195,
      "ﬕ": 7196,
      "ﬖ": 7197,
      "ﬗ": 7198,
      "ﷺ": 7199,
      "︎": 7200,
      "️": 7201,
      "﹑": 7202,
      "ﺎ": 7203,
      "ﺐ": 7204,
      "ﺗ": 7205,
      "ﺧ": 7206,
      "ﺮ": 7207,
      "ﻋ": 7208,
      "ﻑ": 7209,
      "ﻙ": 7210,
      "ﻛ": 7211,
      "ﻱ": 7212,
      "﻿": 7213,
      "！": 7214,
      "＆": 7215,
      "（": 7216,
      "）": 7217,
      "＋": 7218,
      "，": 7219,
      "－": 7220,
      "．": 7221,
      "／": 7222,
      "０": 7223,
      "１": 7224,
      "２": 7225,
      "３": 7226,
      "４": 7227,
      "６": 7228,
      "７": 7229,
      "９": 7230,
      "：": 7231,
      "；": 7232,
      "＜": 7233,
      "＞": 7234,
      "？": 7235,
      "＠": 7236,
      "Ａ": 7237,
      "Ｂ": 7238,
      "Ｃ": 7239,
      "Ｄ": 7240,
      "Ｅ": 7241,
      "Ｈ": 7242,
      "Ｉ": 7243,
      "Ｋ": 7244,
      "Ｌ": 7245,
      "Ｍ": 7246,
      "Ｎ": 7247,
      "Ｏ": 7248,
      "Ｐ": 7249,
      "Ｑ": 7250,
      "Ｒ": 7251,
      "Ｓ": 7252,
      "Ｔ": 7253,
      "Ｕ": 7254,
      "Ｗ": 7255,
      "Ｙ": 7256,
      "Ｚ": 7257,
      "ａ": 7258,
      "ｃ": 7259,
      "ｄ": 7260,
      "ｅ": 7261,
      "ｆ": 7262,
      "ｇ": 7263,
      "ｈ": 7264,
      "ｉ": 7265,
      "ｌ": 7266,
      "ｎ": 7267,
      "ｏ": 7268,
      "ｒ": 7269,
      "ｔ": 7270,
      "ｕ": 7271,
      "ｗ": 7272,
      "｜": 7273,
      "～": 7274,
      "｢": 7275,
      "｣": 7276,
      "､": 7277,
      "･": 7278,
      "ﾟ": 7279,
      "￼": 7280,
      "�": 7281,
      "𐀊": 7282,
      "𐀚": 7283,
      "𐀞": 7284,
      "𐀺": 7285,
      "𐌰": 7286,
      "𐌹": 7287,
      "𐌽": 7288,
      "𐍂": 7289,
      "𐍃": 7290,
      "𐍅": 7291,
      "𐎠": 7292,
      "𐎡": 7293,
      "𐎢": 7294,
      "𐎧": 7295,
      "𐎫": 7296,
      "𐎭": 7297,
      "𐎯": 7298,
      "𐎰": 7299,
      "𐎱": 7300,
      "𐎴": 7301,
      "𐎶": 7302,
      "𐎹": 7303,
      "𐎺": 7304,
      "𐎼": 7305,
      "𐏁": 7306,
      "𐏂": 7307,
      "𐏃": 7308,
      "𐤀": 7309,
      "𐤁": 7310,
      "𐤂": 7311,
      "𐤄": 7312,
      "𐤅": 7313,
      "𐤇": 7314,
      "𐤉": 7315,
      "𐤊": 7316,
      "𐤋": 7317,
      "𐤍": 7318,
      "𐤏": 7319,
      "𐤐": 7320,
      "𐤒": 7321,
      "𐤕": 7322,
      "𐤖": 7323,
      "𐤗": 7324,
      "𐤘": 7325,
      "𐤙": 7326,
      "𐤟": 7327,
      "𐤠": 7328,
      "𐤣": 7329,
      "𐤭": 7330,
      "𐤮": 7331,
      "𐤱": 7332,
      "𐩣": 7333,
      "𐩤": 7334,
      "𐩥": 7335,
      "𐩩": 7336,
      "𐩱": 7337,
      "𐩺": 7338,
      "𐬀": 7339,
      "𐬉": 7340,
      "𐬌": 7341,
      "𐬛": 7342,
      "𐬞": 7343,
      "𐬭": 7344,
      "𐬰": 7345,
      "𐭃": 7346,
      "𐭅": 7347,
      "𐭉": 7348,
      "𐭐": 7349,
      "𐭓": 7350,
      "𐭕": 7351,
      "𐭡": 7352,
      "𐭥": 7353,
      "𐭫": 7354,
      "𐭮": 7355,
      "𐭯": 7356,
      "𒀀": 7357,
      "𒀝": 7358,
      "𒀭": 7359,
      "𒂍": 7360,
      "𒄀": 7361,
      "𒄴": 7362,
      "𒄿": 7363,
      "𒅆": 7364,
      "𒅈": 7365,
      "𒅗": 7366,
      "𒆪": 7367,
      "𒈗": 7368,
      "𒈠": 7369,
      "𒊏": 7370,
      "𒊩": 7371,
      "𒋗": 7372,
      "𒋢": 7373,
      "𒋾": 7374,
      "𒌆": 7375,
      "𒌑": 7376,
      "𒌤": 7377,
      "𒍜": 7378,
      "𒍪": 7379,
      "𒐊": 7380,
      "𝐂": 7381,
      "𝐄": 7382,
      "𝐅": 7383,
      "𝐇": 7384,
      "𝐜": 7385,
      "𝐞": 7386,
      "𝐟": 7387,
      "𝐢": 7388,
      "𝐥": 7389,
      "𝐧": 7390,
      "𝐨": 7391,
      "𝐫": 7392,
      "𝐱": 7393,
      "𝑎": 7394,
      "𝑐": 7395,
      "𝑑": 7396,
      "𝑒": 7397,
      "𝑓": 7398,
      "𝑙": 7399,
      "𝑝": 7400,
      "𝑡": 7401,
      "𝑢": 7402,
      "𝑣": 7403,
      "𝑥": 7404,
      "𝔇": 7405,
      "𝔉": 7406,
      "𝔊": 7407,
      "𝔍": 7408,
      "𝔏": 7409,
      "𝔐": 7410,
      "𝔑": 7411,
      "𝔒": 7412,
      "𝔓": 7413,
      "𝔖": 7414,
      "𝔗": 7415,
      "𝔙": 7416,
      "𝔞": 7417,
      "𝔟": 7418,
      "𝔠": 7419,
      "𝔡": 7420,
      "𝔢": 7421,
      "𝔣": 7422,
      "𝔤": 7423,
      "𝔥": 7424,
      "𝔦": 7425,
      "𝔩": 7426,
      "𝔪": 7427,
      "𝔫": 7428,
      "𝔬": 7429,
      "𝔭": 7430,
      "𝔮": 7431,
      "𝔯": 7432,
      "𝔰": 7433,
      "𝔱": 7434,
      "𝔲": 7435,
      "𝔳": 7436,
      "𝔶": 7437,
      "𝔷": 7438,
      "𝕮": 7439,
      "𝕴": 7440,
      "𝕽": 7441,
      "𝖅": 7442,
      "𝗔": 7443,
      "𝗖": 7444,
      "𝗘": 7445,
      "𝗟": 7446,
      "𝗠": 7447,
      "𝗥": 7448,
      "𝗦": 7449,
      "𝗧": 7450,
      "𝗩": 7451,
      "𝗮": 7452,
      "𝗰": 7453,
      "𝗱": 7454,
      "𝗲": 7455,
      "𝗴": 7456,
      "𝗶": 7457,
      "𝗹": 7458,
      "𝗺": 7459,
      "𝗻": 7460,
      "𝗼": 7461,
      "𝗽": 7462,
      "𝗿": 7463,
      "𝘀": 7464,
      "𝘁": 7465,
      "𝘆": 7466,
      "𝘢": 7467,
      "𝘰": 7468,
      "𝘴": 7469,
      "𝙃": 7470,
      "𝙋": 7471,
      "𝙍": 7472,
      "𝙖": 7473,
      "𝙘": 7474,
      "𝙙": 7475,
      "𝙚": 7476,
      "𝙞": 7477,
      "𝙡": 7478,
      "𝙣": 7479,
      "𝙤": 7480,
      "𝙧": 7481,
      "𝙨": 7482,
      "𝙩": 7483,
      "𝚍": 7484,
      "𝚎": 7485,
      "𝚚": 7486,
      "𝚞": 7487,
      "𝛾": 7488,
      "𝼄": 7489,
      "𝼅": 7490,
      "𝼆": 7491,
      "𝼈": 7492,
      "🅰": 7493,
      "🅱": 7494,
      "🆎": 7495,
      "🇦": 7496,
      "🇨": 7497,
      "🇩": 7498,
      "🇪": 7499,
      "🇰": 7500,
      "🇱": 7501,
      "🇳": 7502,
      "🇷": 7503,
      "🇺": 7504,
      "🌑": 7505,
      "🌕": 7506,
      "🎁": 7507,
      "🎄": 7508,
      "🎧": 7509,
      "🏭": 7510,
      "🏷": 7511,
      "🏻": 7512,
      "👁": 7513,
      "👍": 7514,
      "😈": 7515,
      "😎": 7516,
      "🛑": 7517,
      "🜚": 7518,
      "🜨": 7519,
      "🤖": 7520,
      "🤨": 7521,
      "🥴": 7522,
      "🩸": 7523,
      "🪐": 7524,
      "􀃆": 7525,
      "􀍶": 7526,
      "de": 7527,
      "en": 7528,
      "es": 7529,
      "la": 7530,
      "er": 7531,
      "os": 7532,
      "on": 7533,
      "ci": 7534,
      "ar": 7535,
      "an": 7536,
      "or": 7537,
      "al": 7538,
      "as": 7539,
      "el": 7540,
      "ad": 7541,
      "in": 7542,
      "un": 7543,
      "ue": 7544,
      "re": 7545,
      "ti": 7546,
      "ent": 7547,
      "is": 7548,
      "co": 7549,
      "ta": 7550,
      "ón": 7551,
      "tr": 7552,
      "con": 7553,
      "se": 7554,
      "te": 7555,
      "que": 7556,
      "ic": 7557,
      "do": 7558,
      "ro": 7559,
      "to": 7560,
      "di": 7561,
      "del": 7562,
      "ción": 7563,
      "los": 7564,
      "ra": 7565,
      "su": 7566,
      "ri": 7567,
      "le": 7568,
      "por": 7569,
      "cu": 7570,
      "mo": 7571,
      "par": 7572,
      "am": 7573,
      "lo": 7574,
      "tu": 7575,
      "si": 7576,
      "ado": 7577,
      "ter": 7578,
      "li": 7579,
      "las": 7580,
      "ab": 7581,
      "19": 7582,
      "ía": 7583,
      "da": 7584,
      "ma": 7585,
      "vi": 7586,
      "20": 7587,
      "res": 7588,
      "mi": 7589,
      "una": 7590,
      "ca": 7591,
      "des": 7592,
      "ente": 7593,
      "mb": 7594,
      "po": 7595,
      "per": 7596,
      "ch": 7597,
      "cion": 7598,
      "no": 7599,
      "pa": 7600,
      "pro": 7601,
      "tor": 7602,
      "dad": 7603,
      "io": 7604,
      "ol": 7605,
      "ui": 7606,
      "ac": 7607,
      "ia": 7608,
      "ada": 7609,
      "En": 7610,
      "ran": 7611,
      "us": 7612,
      "ica": 7613,
      "pe": 7614,
      "para": 7615,
      "cia": 7616,
      "Es": 7617,
      "me": 7618,
      "como": 7619,
      "dos": 7620,
      "go": 7621,
      "El": 7622,
      "pu": 7623,
      "ex": 7624,
      "man": 7625,
      "bi": 7626,
      "ni": 7627,
      "so": 7628,
      "má": 7629,
      "den": 7630,
      "ales": 7631,
      "ali": 7632,
      "La": 7633,
      "ec": 7634,
      "mp": 7635,
      "gu": 7636,
      "era": 7637,
      "tos": 7638,
      "du": 7639,
      "fi": 7640,
      "Re": 7641,
      "tas": 7642,
      "na": 7643,
      "ados": 7644,
      "tan": 7645,
      "ciones": 7646,
      "ten": 7647,
      "fue": 7648,
      "vo": 7649,
      "ver": 7650,
      "tra": 7651,
      "tes": 7652,
      "lu": 7653,
      "tar": 7654,
      "pi": 7655,
      "lan": 7656,
      "más": 7657,
      "gi": 7658,
      "ento": 7659,
      "aj": 7660,
      "fer": 7661,
      "mu": 7662,
      "za": 7663,
      "qui": 7664,
      "mente": 7665,
      "200": 7666,
      "ces": 7667,
      "én": 7668,
      "for": 7669,
      "com": 7670,
      "201": 7671,
      "min": 7672,
      "va": 7673,
      "ce": 7674,
      "il": 7675,
      "ve": 7676,
      "és": 7677,
      "son": 7678,
      "ur": 7679,
      "tro": 7680,
      "ero": 7681,
      "ha": 7682,
      "car": 7683,
      "ser": 7684,
      "án": 7685,
      "hi": 7686,
      "tal": 7687,
      "esta": 7688,
      "añ": 7689,
      "dis": 7690,
      "ador": 7691,
      "enci": 7692,
      "cas": 7693,
      "ob": 7694,
      "he": 7695,
      "ando": 7696,
      "est": 7697,
      "gra": 7698,
      "ras": 7699,
      "ga": 7700,
      "pos": 7701,
      "mar": 7702,
      "ne": 7703,
      "ru": 7704,
      "Co": 7705,
      "ina": 7706,
      "der": 7707,
      "uni": 7708,
      "can": 7709,
      "ing": 7710,
      "ba": 7711,
      "In": 7712,
      "pres": 7713,
      "lar": 7714,
      "pri": 7715,
      "emb": 7716,
      "les": 7717,
      "sus": 7718,
      "Se": 7719,
      "qu": 7720,
      "gen": 7721,
      "bre": 7722,
      "fu": 7723,
      "im": 7724,
      "18": 7725,
      "mer": 7726,
      "pr": 7727,
      "),": 7728,
      "vis": 7729,
      "Uni": 7730,
      "hab": 7731,
      "ari": 7732,
      "pañ": 7733,
      ").": 7734,
      "au": 7735,
      "encias": 7736,
      "Al": 7737,
      "eron": 7738,
      "cip": 7739,
      "ib": 7740,
      "em": 7741,
      "199": 7742,
      "Ar": 7743,
      "Con": 7744,
      "ión": 7745,
      "cor": 7746,
      "mbi": 7747,
      "ones": 7748,
      "ino": 7749,
      "sig": 7750,
      "entre": 7751,
      "00": 7752,
      "ho": 7753,
      "ami": 7754,
      "San": 7755,
      "lí": 7756,
      "gar": 7757,
      "adas": 7758,
      "cri": 7759,
      "Mar": 7760,
      "cial": 7761,
      "fin": 7762,
      "pre": 7763,
      "An": 7764,
      "ís": 7765,
      "endo": 7766,
      "gr": 7767,
      "cional": 7768,
      "De": 7769,
      "ferencias": 7770,
      "men": 7771,
      "gan": 7772,
      "parti": 7773,
      "tambi": 7774,
      "también": 7775,
      "cos": 7776,
      "don": 7777,
      "mas": 7778,
      "mis": 7779,
      "ene": 7780,
      "cam": 7781,
      "ano": 7782,
      "gun": 7783,
      "ay": 7784,
      "das": 7785,
      "Na": 7786,
      "tó": 7787,
      "Referencias": 7788,
      "ul": 7789,
      "jo": 7790,
      "inter": 7791,
      "je": 7792,
      "encia": 7793,
      "lla": 7794,
      "medi": 7795,
      "Par": 7796,
      "tura": 7797,
      "este": 7798,
      "ig": 7799,
      "nos": 7800,
      "ele": 7801,
      "entes": 7802,
      "ación": 7803,
      "ista": 7804,
      "gos": 7805,
      "oc": 7806,
      "um": 7807,
      "th": 7808,
      "cio": 7809,
      "ie": 7810,
      "años": 7811,
      "cre": 7812,
      "Los": 7813,
      "icos": 7814,
      "of": 7815,
      "ju": 7816,
      "Su": 7817,
      "amente": 7818,
      "ven": 7819,
      "Est": 7820,
      "ior": 7821,
      "bl": 7822,
      "ona": 7823,
      "ana": 7824,
      "dades": 7825,
      "versi": 7826,
      "tras": 7827,
      "tica": 7828,
      "198": 7829,
      "lle": 7830,
      "zo": 7831,
      "ir": 7832,
      "ge": 7833,
      "oci": 7834,
      "ún": 7835,
      "cer": 7836,
      "tin": 7837,
      "tros": 7838,
      "sobre": 7839,
      "ya": 7840,
      "pue": 7841,
      "cción": 7842,
      "esti": 7843,
      "Ch": 7844,
      "rante": 7845,
      "aron": 7846,
      "bol": 7847,
      "may": 7848,
      "espe": 7849,
      "asta": 7850,
      "Car": 7851,
      "pas": 7852,
      "miento": 7853,
      "ber": 7854,
      "cons": 7855,
      "Le": 7856,
      "almente": 7857,
      "ble": 7858,
      "ér": 7859,
      "exter": 7860,
      "toria": 7861,
      "comp": 7862,
      "gran": 7863,
      "fe": 7864,
      "tí": 7865,
      "ment": 7866,
      "tri": 7867,
      "ante": 7868,
      "jun": 7869,
      "titu": 7870,
      "forma": 7871,
      "graf": 7872,
      "cuent": 7873,
      "ton": 7874,
      "cho": 7875,
      "sa": 7876,
      "fun": 7877,
      "parte": 7878,
      "fic": 7879,
      "xi": 7880,
      "embre": 7881,
      "cent": 7882,
      "tur": 7883,
      "pero": 7884,
      "hasta": 7885,
      "Ma": 7886,
      "lación": 7887,
      "istas": 7888,
      "udad": 7889,
      "ctor": 7890,
      "bo": 7891,
      "año": 7892,
      "lor": 7893,
      "laces": 7894,
      "aliz": 7895,
      "ban": 7896,
      "externos": 7897,
      "br": 7898,
      "erra": 7899,
      "Enlaces": 7900,
      "edi": 7901,
      "tiv": 7902,
      "cen": 7903,
      "lio": 7904,
      "tico": 7905,
      "197": 7906,
      "tbol": 7907,
      "donde": 7908,
      "ed": 7909,
      "grafía": 7910,
      "aba": 7911,
      "mon": 7912,
      "ario": 7913,
      "prin": 7914,
      "rí": 7915,
      "Ro": 7916,
      "produ": 7917,
      "pon": 7918,
      "cal": 7919,
      "pués": 7920,
      "desde": 7921,
      "dic": 7922,
      "person": 7923,
      "primer": 7924,
      "nomb": 7925,
      "et": 7926,
      "nue": 7927,
      "pel": 7928,
      "ja": 7929,
      "emp": 7930,
      "ajo": 7931,
      "The": 7932,
      "ase": 7933,
      "tado": 7934,
      "pen": 7935,
      "II": 7936,
      "Di": 7937,
      "ins": 7938,
      "fica": 7939,
      "cha": 7940,
      "fr": 7941,
      "mos": 7942,
      "mera": 7943,
      "cla": 7944,
      "17": 7945,
      "present": 7946,
      "ros": 7947,
      "cul": 7948,
      "tis": 7949,
      "tivo": 7950,
      "clu": 7951,
      "his": 7952,
      "ren": 7953,
      "dio": 7954,
      "sin": 7955,
      "antes": 7956,
      "||": 7957,
      "elec": 7958,
      "Mi": 7959,
      "Ca": 7960,
      "iden": 7961,
      "15": 7962,
      "Fran": 7963,
      "conoci": 7964,
      "Gu": 7965,
      "ciudad": 7966,
      "tru": 7967,
      "ño": 7968,
      "estu": 7969,
      "ora": 7970,
      "Ju": 7971,
      "ció": 7972,
      "Pa": 7973,
      "ían": 7974,
      "entos": 7975,
      "val": 7976,
      "Des": 7977,
      "adores": 7978,
      "ores": 7979,
      "durante": 7980,
      "10": 7981,
      "vol": 7982,
      "vin": 7983,
      "lia": 7984,
      "mento": 7985,
      "it": 7986,
      "196": 7987,
      "paña": 7988,
      "Las": 7989,
      "and": 7990,
      "alidad": 7991,
      "be": 7992,
      "ale": 7993,
      "To": 7994,
      "equi": 7995,
      "hu": 7996,
      "tran": 7997,
      "vari": 7998,
      "tiene": 7999,
      "16": 8000,
      "Pro": 8001,
      "trab": 8002,
      "iz": 8003,
      "ll": 8004,
      "ris": 8005,
      "estado": 8006,
      "princip": 8007,
      "tre": 8008,
      "bu": 8009,
      "log": 8010,
      "Estados": 8011,
      "ícu": 8012,
      "tem": 8013,
      "pob": 8014,
      "contra": 8015,
      "tion": 8016,
      "No": 8017,
      "ías": 8018,
      "all": 8019,
      "visión": 8020,
      "terior": 8021,
      "tori": 8022,
      "Cu": 8023,
      "arro": 8024,
      "her": 8025,
      "cl": 8026,
      "ña": 8027,
      "pla": 8028,
      "Lu": 8029,
      "Unidos": 8030,
      "Fu": 8031,
      "encuent": 8032,
      "Bo": 8033,
      "Li": 8034,
      "Per": 8035,
      "bier": 8036,
      "fici": 8037,
      "cual": 8038,
      "gru": 8039,
      "está": 8040,
      "pues": 8041,
      "lti": 8042,
      "eli": 8043,
      "después": 8044,
      "ini": 8045,
      "mayor": 8046,
      "ard": 8047,
      "primera": 8048,
      "cur": 8049,
      "Cam": 8050,
      "uego": 8051,
      "llo": 8052,
      "iste": 8053,
      "ine": 8054,
      "icas": 8055,
      "cada": 8056,
      "ara": 8057,
      "12": 8058,
      "posi": 8059,
      "España": 8060,
      "muni": 8061,
      "tiva": 8062,
      "contr": 8063,
      "fa": 8064,
      "anti": 8065,
      "gui": 8066,
      "bas": 8067,
      "uno": 8068,
      "ín": 8069,
      "nacional": 8070,
      "dió": 8071,
      "había": 8072,
      "reg": 8073,
      "han": 8074,
      "jer": 8075,
      "ás": 8076,
      "fami": 8077,
      "Universi": 8078,
      "apar": 8079,
      "gua": 8080,
      "uel": 8081,
      "ace": 8082,
      "reci": 8083,
      "actu": 8084,
      "cab": 8085,
      "uso": 8086,
      "pú": 8087,
      "sigui": 8088,
      "especi": 8089,
      "So": 8090,
      "Por": 8091,
      "ús": 8092,
      "As": 8093,
      "cuando": 8094,
      "tres": 8095,
      "195": 8096,
      "nor": 8097,
      "mismo": 8098,
      "ena": 8099,
      "fueron": 8100,
      "van": 8101,
      "tantes": 8102,
      "Po": 8103,
      "gener": 8104,
      "the": 8105,
      "Mon": 8106,
      "zó": 8107,
      "nombre": 8108,
      "ella": 8109,
      "lugar": 8110,
      "ticas": 8111,
      "ub": 8112,
      "14": 8113,
      "otros": 8114,
      "uro": 8115,
      "194": 8116,
      "éxi": 8117,
      "dire": 8118,
      "Can": 8119,
      "tante": 8120,
      "Cor": 8121,
      "mó": 8122,
      "His": 8123,
      "adi": 8124,
      "dor": 8125,
      "Bar": 8126,
      "lab": 8127,
      "13": 8128,
      "atro": 8129,
      "ese": 8130,
      "escri": 8131,
      "Cas": 8132,
      "publ": 8133,
      "ion": 8134,
      "lado": 8135,
      "vez": 8136,
      "Jo": 8137,
      "Ne": 8138,
      "junto": 8139,
      "últi": 8140,
      "eran": 8141,
      "dado": 8142,
      "dar": 8143,
      "uti": 8144,
      "demás": 8145,
      "mun": 8146,
      "ismo": 8147,
      "día": 8148,
      "vel": 8149,
      "Mo": 8150,
      "at": 8151,
      "segun": 8152,
      "tempor": 8153,
      "Si": 8154,
      "ap": 8155,
      "zación": 8156,
      "ál": 8157,
      "bri": 8158,
      "habi": 8159,
      "193": 8160,
      "ck": 8161,
      "Mu": 8162,
      "super": 8163,
      "Man": 8164,
      "plan": 8165,
      "españ": 8166,
      "ez": 8167,
      "Ci": 8168,
      "var": 8169,
      "cin": 8170,
      "lic": 8171,
      "Sa": 8172,
      "polí": 8173,
      "ori": 8174,
      "gún": 8175,
      "chos": 8176,
      "puede": 8177,
      "22": 8178,
      "ambi": 8179,
      "tuvo": 8180,
      "Vi": 8181,
      "mero": 8182,
      "sión": 8183,
      "ts": 8184,
      "vir": 8185,
      "Lo": 8186,
      "dr": 8187,
      "zar": 8188,
      "eros": 8189,
      "tación": 8190,
      "pan": 8191,
      "Fue": 8192,
      "dia": 8193,
      "población": 8194,
      "bum": 8195,
      "tores": 8196,
      "\".": 8197,
      "dera": 8198,
      "fes": 8199,
      "bajo": 8200,
      "edad": 8201,
      "fo": 8202,
      "aban": 8203,
      "ern": 8204,
      "Universidad": 8205,
      "gent": 8206,
      "aje": 8207,
      "municip": 8208,
      "Me": 8209,
      "21": 8210,
      "Or": 8211,
      "trans": 8212,
      "ticos": 8213,
      "amiento": 8214,
      "Ho": 8215,
      "regi": 8216,
      "país": 8217,
      "realiz": 8218,
      "pun": 8219,
      "erto": 8220,
      "logía": 8221,
      "deci": 8222,
      "familia": 8223,
      "fec": 8224,
      "Du": 8225,
      "dios": 8226,
      "bar": 8227,
      "tir": 8228,
      "alle": 8229,
      "gó": 8230,
      "todo": 8231,
      "así": 8232,
      "pes": 8233,
      "Jos": 8234,
      "utili": 8235,
      "abri": 8236,
      "ty": 8237,
      "cuer": 8238,
      "cto": 8239,
      "sur": 8240,
      "algun": 8241,
      "Ale": 8242,
      "erte": 8243,
      "pti": 8244,
      "yo": 8245,
      "ido": 8246,
      "unque": 8247,
      "loc": 8248,
      "yec": 8249,
      "ell": 8250,
      "Nacional": 8251,
      "mes": 8252,
      "quien": 8253,
      "cios": 8254,
      "fran": 8255,
      "tados": 8256,
      "sal": 8257,
      "muy": 8258,
      "\",": 8259,
      "eo": 8260,
      "jor": 8261,
      "tió": 8262,
      "pelícu": 8263,
      "encuentra": 8264,
      "empo": 8265,
      "uela": 8266,
      "int": 8267,
      "minis": 8268,
      "fir": 8269,
      "dó": 8270,
      "provin": 8271,
      "onces": 8272,
      "desarro": 8273,
      "eces": 8274,
      "che": 8275,
      "ich": 8276,
      "..": 8277,
      "impor": 8278,
      "tán": 8279,
      "cidos": 8280,
      "23": 8281,
      "có": 8282,
      "ki": 8283,
      "entras": 8284,
      "ens": 8285,
      "Pre": 8286,
      "acer": 8287,
      "ío": 8288,
      "embar": 8289,
      "ag": 8290,
      "sido": 8291,
      "cias": 8292,
      "Ti": 8293,
      "ficial": 8294,
      "mor": 8295,
      "siglo": 8296,
      "km": 8297,
      "bierno": 8298,
      "trib": 8299,
      "vas": 8300,
      "eje": 8301,
      "public": 8302,
      "sub": 8303,
      "equipo": 8304,
      "Go": 8305,
      "gas": 8306,
      "cel": 8307,
      "Sin": 8308,
      "anos": 8309,
      "Clu": 8310,
      "blica": 8311,
      "Nue": 8312,
      "Bu": 8313,
      "mado": 8314,
      "bió": 8315,
      "nú": 8316,
      "Dis": 8317,
      "25": 8318,
      "serie": 8319,
      "tido": 8320,
      "ución": 8321,
      "bido": 8322,
      "tiempo": 8323,
      "2010": 8324,
      "consi": 8325,
      "pin": 8326,
      "organ": 8327,
      "inclu": 8328,
      "trabaj": 8329,
      "tivos": 8330,
      "Mad": 8331,
      "col": 8332,
      "presiden": 8333,
      "ger": 8334,
      "cis": 8335,
      "arse": 8336,
      "grupo": 8337,
      "Club": 8338,
      "grá": 8339,
      "11": 8340,
      "sos": 8341,
      "té": 8342,
      "tá": 8343,
      "ind": 8344,
      "útbol": 8345,
      "nu": 8346,
      "Chi": 8347,
      "embargo": 8348,
      "Inter": 8349,
      "vent": 8350,
      "Pe": 8351,
      "000": 8352,
      "arios": 8353,
      "ke": 8354,
      "gn": 8355,
      "inf": 8356,
      "siste": 8357,
      "él": 8358,
      "ños": 8359,
      "termin": 8360,
      "chi": 8361,
      "tad": 8362,
      "elo": 8363,
      "Nor": 8364,
      "tera": 8365,
      "solo": 8366,
      "ka": 8367,
      "ley": 8368,
      "éxico": 8369,
      "Gran": 8370,
      "ustr": 8371,
      "rera": 8372,
      "zas": 8373,
      "Ba": 8374,
      "todos": 8375,
      "final": 8376,
      "ep": 8377,
      "comple": 8378,
      "tbolistas": 8379,
      "México": 8380,
      "mano": 8381,
      "dici": 8382,
      "nico": 8383,
      "sen": 8384,
      "tien": 8385,
      "lares": 8386,
      "30": 8387,
      "litar": 8388,
      "Historia": 8389,
      "difer": 8390,
      "Do": 8391,
      "Is": 8392,
      "Futbolistas": 8393,
      "vida": 8394,
      "deo": 8395,
      "descri": 8396,
      "ral": 8397,
      "ht": 8398,
      "dial": 8399,
      "tele": 8400,
      "orden": 8401,
      "Ser": 8402,
      "cido": 8403,
      "puesto": 8404,
      "ata": 8405,
      "quier": 8406,
      "rela": 8407,
      "represent": 8408,
      "adre": 8409,
      "vesti": 8410,
      "rea": 8411,
      "Juan": 8412,
      "Cent": 8413,
      "tel": 8414,
      "able": 8415,
      "eno": 8416,
      "dé": 8417,
      "Pri": 8418,
      "Euro": 8419,
      "comen": 8420,
      "Un": 8421,
      "uegos": 8422,
      "otras": 8423,
      "contin": 8424,
      "tec": 8425,
      "Mun": 8426,
      "torio": 8427,
      "Esta": 8428,
      "español": 8429,
      "municipio": 8430,
      "24": 8431,
      "bio": 8432,
      "=\"": 8433,
      "jos": 8434,
      "mayo": 8435,
      "Ex": 8436,
      "eta": 8437,
      "situ": 8438,
      "ud": 8439,
      "rid": 8440,
      "ill": 8441,
      "capi": 8442,
      "novi": 8443,
      "Val": 8444,
      "miemb": 8445,
      "José": 8446,
      "ea": 8447,
      "rado": 8448,
      "Vé": 8449,
      "estaba": 8450,
      "ener": 8451,
      "ida": 8452,
      "diri": 8453,
      "temporada": 8454,
      "Pu": 8455,
      "jug": 8456,
      "provincia": 8457,
      "Tambi": 8458,
      "personas": 8459,
      "avi": 8460,
      "También": 8461,
      "tener": 8462,
      "mientras": 8463,
      "película": 8464,
      "tubre": 8465,
      "inas": 8466,
      "oficial": 8467,
      "progra": 8468,
      "mada": 8469,
      "iones": 8470,
      "cionales": 8471,
      "depen": 8472,
      "fuer": 8473,
      "mana": 8474,
      "lica": 8475,
      "zado": 8476,
      "álbum": 8477,
      "ptiembre": 8478,
      "julio": 8479,
      "siendo": 8480,
      "incluy": 8481,
      "Este": 8482,
      "adu": 8483,
      "Ra": 8484,
      "junio": 8485,
      "octubre": 8486,
      "enero": 8487,
      "peona": 8488,
      "tanto": 8489,
      "Argent": 8490,
      "om": 8491,
      "estr": 8492,
      "septiembre": 8493,
      "general": 8494,
      "Ru": 8495,
      "aunque": 8496,
      "eb": 8497,
      "marzo": 8498,
      "mio": 8499,
      "lés": 8500,
      "imp": 8501,
      "leg": 8502,
      "hacia": 8503,
      "incl": 8504,
      "ques": 8505,
      "pera": 8506,
      "Véase": 8507,
      "uniden": 8508,
      "Nueva": 8509,
      "ord": 8510,
      "Te": 8511,
      "historia": 8512,
      "ór": 8513,
      "ubic": 8514,
      "gosto": 8515,
      "und": 8516,
      "constru": 8517,
      "Au": 8518,
      "cep": 8519,
      "profes": 8520,
      "compañ": 8521,
      "perio": 8522,
      "Col": 8523,
      "blo": 8524,
      "sol": 8525,
      "tada": 8526,
      "nuevo": 8527,
      "ko": 8528,
      "ves": 8529,
      "color": 8530,
      "teri": 8531,
      "total": 8532,
      "agosto": 8533,
      "pública": 8534,
      "diciembre": 8535,
      "dal": 8536,
      "estadouniden": 8537,
      "ería": 8538,
      "ron": 8539,
      "2000": 8540,
      "respon": 8541,
      "Para": 8542,
      "2011": 8543,
      "Sal": 8544,
      "mujer": 8545,
      "abril": 8546,
      "úsica": 8547,
      "ry": 8548,
      "rey": 8549,
      "hor": 8550,
      "Hu": 8551,
      "Ac": 8552,
      "orig": 8553,
      "rá": 8554,
      "dose": 8555,
      "enta": 8556,
      "encontr": 8557,
      "vos": 8558,
      "Fe": 8559,
      "vista": 8560,
      "resul": 8561,
      "río": 8562,
      "tio": 8563,
      "gobierno": 8564,
      "noviembre": 8565,
      "inglés": 8566,
      "tenía": 8567,
      "Ha": 8568,
      "Pla": 8569,
      "mejor": 8570,
      "estra": 8571,
      "ama": 8572,
      "usic": 8573,
      "origin": 8574,
      "Tra": 8575,
      "Madrid": 8576,
      "2008": 8577,
      "cir": 8578,
      "cuatro": 8579,
      "peque": 8580,
      "prop": 8581,
      "ork": 8582,
      "».": 8583,
      "posición": 8584,
      "ece": 8585,
      "len": 8586,
      "28": 8587,
      "número": 8588,
      "ellos": 8589,
      "están": 8590,
      "fico": 8591,
      "isla": 8592,
      "érica": 8593,
      "brero": 8594,
      "ang": 8595,
      "isten": 8596,
      "apro": 8597,
      "mica": 8598,
      "esa": 8599,
      "Tor": 8600,
      "hn": 8601,
      "2012": 8602,
      "2007": 8603,
      "adio": 8604,
      "estable": 8605,
      "manos": 8606,
      "aria": 8607,
      "formación": 8608,
      "fon": 8609,
      "mundo": 8610,
      "lidad": 8611,
      "ide": 8612,
      "Argentina": 8613,
      "varios": 8614,
      "26": 8615,
      "dida": 8616,
      "amer": 8617,
      "dere": 8618,
      "osa": 8619,
      "servi": 8620,
      "ciden": 8621,
      "Francia": 8622,
      "partido": 8623,
      "vés": 8624,
      "mé": 8625,
      "tural": 8626,
      "land": 8627,
      "stitu": 8628,
      "metros": 8629,
      "proyec": 8630,
      "fen": 8631,
      "homb": 8632,
      "tón": 8633,
      "alidades": 8634,
      "medio": 8635,
      "Ta": 8636,
      "50": 8637,
      "principal": 8638,
      "cado": 8639,
      "obra": 8640,
      "pios": 8641,
      "27": 8642,
      "gado": 8643,
      "gon": 8644,
      "2006": 8645,
      "tistas": 8646,
      "líne": 8647,
      "inos": 8648,
      "Bib": 8649,
      "abi": 8650,
      "sistema": 8651,
      "2014": 8652,
      "norte": 8653,
      "gén": 8654,
      "pueden": 8655,
      "chas": 8656,
      "febrero": 8657,
      "ola": 8658,
      "center": 8659,
      "2009": 8660,
      "osi": 8661,
      "nomin": 8662,
      "presidente": 8663,
      "2013": 8664,
      "Fi": 8665,
      "ani": 8666,
      "gol": 8667,
      "región": 8668,
      "lesia": 8669,
      "mán": 8670,
      "gel": 8671,
      "bos": 8672,
      "2016": 8673,
      "bra": 8674,
      "Be": 8675,
      "debido": 8676,
      "permi": 8677,
      "2015": 8678,
      "apo": 8679,
      "través": 8680,
      "gor": 8681,
      "ico": 8682,
      "ocu": 8683,
      "desta": 8684,
      "Santa": 8685,
      "29": 8686,
      "ficación": 8687,
      "conocido": 8688,
      "labor": 8689,
      "tivi": 8690,
      "illa": 8691,
      "trui": 8692,
      "vic": 8693,
      "ró": 8694,
      "iso": 8695,
      "dirigi": 8696,
      "luego": 8697,
      "comb": 8698,
      "elección": 8699,
      "dido": 8700,
      "eci": 8701,
      "inte": 8702,
      "habitantes": 8703,
      "Am": 8704,
      "tales": 8705,
      "María": 8706,
      "sia": 8707,
      "ist": 8708,
      "comun": 8709,
      "títu": 8710,
      "gación": 8711,
      "especie": 8712,
      "IS": 8713,
      "guerra": 8714,
      "tero": 8715,
      "Pres": 8716,
      "ere": 8717,
      "divi": 8718,
      "amp": 8719,
      "Mor": 8720,
      "Pol": 8721,
      "entonces": 8722,
      "Durante": 8723,
      "tipo": 8724,
      "ental": 8725,
      "teriormente": 8726,
      "empres": 8727,
      "estadounidense": 8728,
      "vuel": 8729,
      "cito": 8730,
      "truc": 8731,
      "peonato": 8732,
      "algunos": 8733,
      "rico": 8734,
      "ello": 8735,
      "ceso": 8736,
      "turas": 8737,
      "peri": 8738,
      "teni": 8739,
      "ph": 8740,
      "190": 8741,
      "movi": 8742,
      "zona": 8743,
      "cuenta": 8744,
      "Biblio": 8745,
      "mal": 8746,
      "bien": 8747,
      "dese": 8748,
      "televisión": 8749,
      "ár": 8750,
      "ible": 8751,
      "For": 8752,
      "jas": 8753,
      "bur": 8754,
      "tando": 8755,
      "otro": 8756,
      "mplo": 8757,
      "capa": 8758,
      "convir": 8759,
      "música": 8760,
      "terri": 8761,
      "2005": 8762,
      "conse": 8763,
      "Chile": 8764,
      "trito": 8765,
      "Gar": 8766,
      "banda": 8767,
      "llev": 8768,
      "id": 8769,
      "ack": 8770,
      "obje": 8771,
      "fra": 8772,
      "via": 8773,
      "Una": 8774,
      "parta": 8775,
      "jér": 8776,
      "mania": 8777,
      "rió": 8778,
      "ló": 8779,
      "comi": 8780,
      "Bio": 8781,
      "Mundial": 8782,
      "cate": 8783,
      "segundo": 8784,
      "trabajo": 8785,
      "gres": 8786,
      "Her": 8787,
      "señ": 8788,
      "Min": 8789,
      "az": 8790,
      "Pi": 8791,
      "Ber": 8792,
      "align": 8793,
      "lico": 8794,
      "además": 8795,
      "mientos": 8796,
      "2018": 8797,
      "estos": 8798,
      "ciales": 8799,
      "versión": 8800,
      "oso": 8801,
      "lib": 8802,
      "fútbol": 8803,
      "pul": 8804,
      "econ": 8805,
      "aqu": 8806,
      "cuela": 8807,
      "largo": 8808,
      "lec": 8809,
      "icación": 8810,
      "ura": 8811,
      "Bal": 8812,
      "partir": 8813,
      "tamente": 8814,
      "especial": 8815,
      "comer": 8816,
      "ác": 8817,
      "mia": 8818,
      "dise": 8819,
      "2017": 8820,
      "esto": 8821,
      "exp": 8822,
      "acter": 8823,
      "Ter": 8824,
      "militar": 8825,
      "nivel": 8826,
      "perten": 8827,
      "americ": 8828,
      "investi": 8829,
      "bus": 8830,
      "Según": 8831,
      "bal": 8832,
      ".,": 8833,
      "hay": 8834,
      "At": 8835,
      "2004": 8836,
      "John": 8837,
      "tivas": 8838,
      "|-": 8839,
      "centro": 8840,
      "toda": 8841,
      "tarde": 8842,
      "siguiente": 8843,
      "poca": 8844,
      "gro": 8845,
      "canción": 8846,
      "XX": 8847,
      "agua": 8848,
      "vió": 8849,
      "Wil": 8850,
      "dencia": 8851,
      "tienen": 8852,
      "usa": 8853,
      "segunda": 8854,
      "York": 8855,
      "dentro": 8856,
      "hizo": 8857,
      "Guerra": 8858,
      "auto": 8859,
      "vil": 8860,
      "poder": 8861,
      "189": 8862,
      "cipios": 8863,
      "Estado": 8864,
      "fre": 8865,
      "III": 8866,
      "Ver": 8867,
      "hacer": 8868,
      "estas": 8869,
      "depor": 8870,
      "tancia": 8871,
      "ick": 8872,
      "Luis": 8873,
      "director": 8874,
      "Ob": 8875,
      "ong": 8876,
      "oni": 8877,
      "40": 8878,
      "dan": 8879,
      "programa": 8880,
      "ajes": 8881,
      "Francis": 8882,
      "interpre": 8883,
      "talla": 8884,
      "Pal": 8885,
      "continu": 8886,
      "tario": 8887,
      "ólo": 8888,
      "2019": 8889,
      "alcan": 8890,
      "Rob": 8891,
      "dej": 8892,
      "Loc": 8893,
      "jército": 8894,
      "tia": 8895,
      "unos": 8896,
      "ellas": 8897,
      "mill": 8898,
      "tino": 8899,
      "caso": 8900,
      "ler": 8901,
      "descu": 8902,
      "casa": 8903,
      "club": 8904,
      "muerte": 8905,
      "Carlos": 8906,
      "cine": 8907,
      "cía": 8908,
      "»,": 8909,
      "ly": 8910,
      "Nacidos": 8911,
      "rio": 8912,
      "particip": 8913,
      "poco": 8914,
      "neces": 8915,
      "pec": 8916,
      "ps": 8917,
      "República": 8918,
      "propi": 8919,
      "cimiento": 8920,
      "Cla": 8921,
      "juego": 8922,
      "ye": 8923,
      "bor": 8924,
      "onia": 8925,
      "culo": 8926,
      "fal": 8927,
      "meros": 8928,
      "Ri": 8929,
      "menos": 8930,
      "Después": 8931,
      "producción": 8932,
      "carrera": 8933,
      "2020": 8934,
      "género": 8935,
      "Además": 8936,
      "hijo": 8937,
      "Tras": 8938,
      "baj": 8939,
      "Edi": 8940,
      "duca": 8941,
      "enos": 8942,
      "mando": 8943,
      "ys": 8944,
      "gal": 8945,
      "blan": 8946,
      "Lib": 8947,
      "partici": 8948,
      "ner": 8949,
      "dra": 8950,
      "art": 8951,
      "gri": 8952,
      "Copa": 8953,
      "días": 8954,
      "music": 8955,
      "tex": 8956,
      "puesta": 8957,
      "Entre": 8958,
      "línea": 8959,
      "Ad": 8960,
      "mentos": 8961,
      "Anton": 8962,
      "neo": 8963,
      "2001": 8964,
      "varias": 8965,
      "Com": 8966,
      "tt": 8967,
      "ld": 8968,
      "unidad": 8969,
      "Fo": 8970,
      "momento": 8971,
      "tista": 8972,
      "Qu": 8973,
      "último": 8974,
      "pción": 8975,
      "Yo": 8976,
      "eligi": 8977,
      "2003": 8978,
      "Fin": 8979,
      "nueva": 8980,
      "Depor": 8981,
      "Alemania": 8982,
      "He": 8983,
      "ah": 8984,
      "cuar": 8985,
      "cele": 8986,
      "media": 8987,
      "rar": 8988,
      "finales": 8989,
      "título": 8990,
      "estruc": 8991,
      "edición": 8992,
      "consider": 8993,
      "Ig": 8994,
      "hace": 8995,
      "antigu": 8996,
      "grandes": 8997,
      "cidad": 8998,
      "Fern": 8999,
      "localidad": 9000,
      "Ge": 9001,
      "obras": 9002,
      "rada": 9003,
      "vía": 9004,
      "ases": 9005,
      "ministra": 9006,
      "ai": 9007,
      "prote": 9008,
      "omía": 9009,
      "ficio": 9010,
      "ruz": 9011,
      "Desde": 9012,
      "New": 9013,
      "condado": 9014,
      "derro": 9015,
      "cris": 9016,
      "ración": 9017,
      "misma": 9018,
      "Gener": 9019,
      "denomin": 9020,
      "padre": 9021,
      "construi": 9022,
      "imon": 9023,
      "tín": 9024,
      "popu": 9025,
      "2002": 9026,
      "crí": 9027,
      "yó": 9028,
      "acción": 9029,
      "anterior": 9030,
      "188": 9031,
      "otra": 9032,
      "haber": 9033,
      "hon": 9034,
      "logr": 9035,
      "refer": 9036,
      "activi": 9037,
      "muchos": 9038,
      "ísticas": 9039,
      "volu": 9040,
      "según": 9041,
      "ág": 9042,
      "Francisco": 9043,
      "tradi": 9044,
      "tér": 9045,
      "Hi": 9046,
      "Institu": 9047,
      "Sur": 9048,
      "Como": 9049,
      "partamento": 9050,
      "oro": 9051,
      "signi": 9052,
      "domin": 9053,
      "tud": 9054,
      "60": 9055,
      "Real": 9056,
      "ctores": 9057,
      "ning": 9058,
      "época": 9059,
      "mayoría": 9060,
      "espec": 9061,
      "espa": 9062,
      "Medi": 9063,
      "pueblo": 9064,
      "millones": 9065,
      "diferentes": 9066,
      "seo": 9067,
      "rez": 9068,
      "Lon": 9069,
      "vers": 9070,
      "gue": 9071,
      "later": 9072,
      "Bibliografía": 9073,
      "regres": 9074,
      "efec": 9075,
      "adora": 9076,
      "eras": 9077,
      "ios": 9078,
      "política": 9079,
      "clasi": 9080,
      "defin": 9081,
      "cerca": 9082,
      "manera": 9083,
      "Ni": 9084,
      "sico": 9085,
      "tron": 9086,
      "lada": 9087,
      "utiliz": 9088,
      "comenzó": 9089,
      "ización": 9090,
      "Premio": 9091,
      "importante": 9092,
      "talia": 9093,
      "base": 9094,
      "Ai": 9095,
      "acu": 9096,
      "anza": 9097,
      "od": 9098,
      "visi": 9099,
      "nia": 9100,
      "rede": 9101,
      "idad": 9102,
      "anun": 9103,
      "lon": 9104,
      "cargo": 9105,
      "web": 9106,
      "cinco": 9107,
      "pación": 9108,
      "construcción": 9109,
      "frente": 9110,
      "capital": 9111,
      "gada": 9112,
      "diente": 9113,
      "Campeonato": 9114,
      "Localidades": 9115,
      "oeste": 9116,
      "BN": 9117,
      "ejemplo": 9118,
      "Demo": 9119,
      "distrito": 9120,
      "bern": 9121,
      "cular": 9122,
      "cle": 9123,
      "tamiento": 9124,
      "lin": 9125,
      "ré": 9126,
      "Ros": 9127,
      "Gra": 9128,
      "histó": 9129,
      "1999": 9130,
      "cuad": 9131,
      "taba": 9132,
      "ñas": 9133,
      "Colo": 9134,
      "veces": 9135,
      "hecho": 9136,
      "Ál": 9137,
      "censo": 9138,
      "Da": 9139,
      "ayu": 9140,
      "primeros": 9141,
      "vor": 9142,
      "nacionales": 9143,
      "ridad": 9144,
      "cés": 9145,
      "Je": 9146,
      "sí": 9147,
      "pren": 9148,
      "Gru": 9149,
      "):": 9150,
      "Har": 9151,
      "eni": 9152,
      "llamado": 9153,
      "Flor": 9154,
      "disco": 9155,
      "aciones": 9156,
      "vela": 9157,
      "caracter": 9158,
      "convirtió": 9159,
      "ate": 9160,
      "Ped": 9161,
      "internacional": 9162,
      "san": 9163,
      "cuerdo": 9164,
      "igu": 9165,
      "187": 9166,
      "tina": 9167,
      "Vic": 9168,
      "vieron": 9169,
      "ISBN": 9170,
      "ardo": 9171,
      "arte": 9172,
      "geo": 9173,
      "Bri": 9174,
      "2021": 9175,
      "serva": 9176,
      "Tu": 9177,
      "desarrollo": 9178,
      "Europa": 9179,
      "distin": 9180,
      "Mas": 9181,
      "cade": 9182,
      "terio": 9183,
      "papel": 9184,
      "cá": 9185,
      "mpicos": 9186,
      "ff": 9187,
      "Reino": 9188,
      "punto": 9189,
      "mujeres": 9190,
      "juegos": 9191,
      "Cab": 9192,
      "ric": 9193,
      "1998": 9194,
      "fil": 9195,
      "todas": 9196,
      "tidad": 9197,
      "ima": 9198,
      "Barcel": 9199,
      "cier": 9200,
      "Italia": 9201,
      "entí": 9202,
      "gus": 9203,
      "pó": 9204,
      "mbia": 9205,
      "Partido": 9206,
      "Segun": 9207,
      "100": 9208,
      "onal": 9209,
      "compe": 9210,
      "misión": 9211,
      "ers": 9212,
      "sali": 9213,
      "sec": 9214,
      "comien": 9215,
      "algunas": 9216,
      "dez": 9217,
      "miembros": 9218,
      "Antonio": 9219,
      "gica": 9220,
      "guay": 9221,
      "Ste": 9222,
      "Comp": 9223,
      "gráfica": 9224,
      "Biografía": 9225,
      "Austr": 9226,
      "Im": 9227,
      "fundad": 9228,
      "alla": 9229,
      "estudio": 9230,
      "mico": 9231,
      "tivamente": 9232,
      "figu": 9233,
      "are": 9234,
      "cambi": 9235,
      "téc": 9236,
      "Barcelona": 9237,
      "1990": 9238,
      "quitec": 9239,
      "emen": 9240,
      "ish": 9241,
      "proyecto": 9242,
      "términ": 9243,
      "elegi": 9244,
      "liber": 9245,
      "icha": 9246,
      "Fa": 9247,
      "conocida": 9248,
      "partidos": 9249,
      "port": 9250,
      "oper": 9251,
      "Res": 9252,
      "Sus": 9253,
      "dro": 9254,
      "1997": 9255,
      "década": 9256,
      "ional": 9257,
      "diendo": 9258,
      "Gui": 9259,
      "segui": 9260,
      "usti": 9261,
      "Norte": 9262,
      "perman": 9263,
      "Sh": 9264,
      "wa": 9265,
      "estudi": 9266,
      "nas": 9267,
      "estudios": 9268,
      "llegar": 9269,
      "América": 9270,
      "proble": 9271,
      "Juegos": 9272,
      "wn": 9273,
      "esca": 9274,
      "lanz": 9275,
      "Rec": 9276,
      "Fer": 9277,
      "cuales": 9278,
      "ándose": 9279,
      "miembro": 9280,
      "Sch": 9281,
      "correspon": 9282,
      "escen": 9283,
      "sul": 9284,
      "actual": 9285,
      "by": 9286,
      "Pos": 9287,
      "ok": 9288,
      "social": 9289,
      "laciones": 9290,
      "orge": 9291,
      "cesa": 9292,
      "80": 9293,
      "especies": 9294,
      "Unión": 9295,
      "Pan": 9296,
      "taron": 9297,
      "Mis": 9298,
      "dieron": 9299,
      "dispu": 9300,
      "Vene": 9301,
      "ft": 9302,
      "amar": 9303,
      "puntos": 9304,
      "constitu": 9305,
      "inten": 9306,
      "Ban": 9307,
      "dores": 9308,
      "habían": 9309,
      "eza": 9310,
      "econó": 9311,
      "ciación": 9312,
      "libro": 9313,
      "defen": 9314,
      "mediante": 9315,
      "pal": 9316,
      "inclui": 9317,
      "sex": 9318,
      "pesar": 9319,
      "real": 9320,
      "Geo": 9321,
      "Pel": 9322,
      "ev": 9323,
      "rededor": 9324,
      "ética": 9325,
      "fuera": 9326,
      "1996": 9327,
      "religi": 9328,
      "mil": 9329,
      "División": 9330,
      "eció": 9331,
      "principales": 9332,
      "canciones": 9333,
      "2022": 9334,
      "Cuando": 9335,
      "Ciudad": 9336,
      "Med": 9337,
      "mostr": 9338,
      "Ori": 9339,
      "General": 9340,
      "tagon": 9341,
      "sor": 9342,
      "Perú": 9343,
      "model": 9344,
      "conver": 9345,
      "istencia": 9346,
      "equipos": 9347,
      "casi": 9348,
      "Pedro": 9349,
      "xim": 9350,
      "ses": 9351,
      "Pau": 9352,
      "cien": 9353,
      "bles": 9354,
      "tenido": 9355,
      "dación": 9356,
      "alización": 9357,
      "blico": 9358,
      "31": 9359,
      "moder": 9360,
      "tus": 9361,
      "sab": 9362,
      "Bras": 9363,
      "indepen": 9364,
      "evi": 9365,
      "culos": 9366,
      "arias": 9367,
      "din": 9368,
      "Ing": 9369,
      "Primera": 9370,
      "Gre": 9371,
      "Buenos": 9372,
      "1994": 9373,
      "zos": 9374,
      "ham": 9375,
      "autor": 9376,
      "ual": 9377,
      "Jap": 9378,
      "anas": 9379,
      "exten": 9380,
      "poli": 9381,
      "ubicado": 9382,
      "torial": 9383,
      "Aires": 9384,
      "fron": 9385,
      "París": 9386,
      "Mer": 9387,
      "Cris": 9388,
      "Plan": 9389,
      "curso": 9390,
      "dedic": 9391,
      "ade": 9392,
      "Pas": 9393,
      "Liga": 9394,
      "--": 9395,
      "Internacional": 9396,
      "acuerdo": 9397,
      "episo": 9398,
      "eso": 9399,
      "trimon": 9400,
      "trimonio": 9401,
      "prue": 9402,
      "Cali": 9403,
      "itali": 9404,
      "Ed": 9405,
      "direc": 9406,
      "cán": 9407,
      "área": 9408,
      "siguientes": 9409,
      "ares": 9410,
      "1995": 9411,
      "ducación": 9412,
      "bel": 9413,
      "cole": 9414,
      "categor": 9415,
      "Centro": 9416,
      "Tur": 9417,
      "cambio": 9418,
      "org": 9419,
      "Son": 9420,
      "cientí": 9421,
      "actor": 9422,
      "origen": 9423,
      "docu": 9424,
      "olí": 9425,
      "lum": 9426,
      "éxito": 9427,
      "mios": 9428,
      "vio": 9429,
      "186": 9430,
      "estilo": 9431,
      "adamente": 9432,
      "ística": 9433,
      "Segunda": 9434,
      "Tri": 9435,
      "hombres": 9436,
      "elecciones": 9437,
      "35": 9438,
      "Bro": 9439,
      "segu": 9440,
      "mez": 9441,
      "llos": 9442,
      "Cul": 9443,
      "cida": 9444,
      "gobern": 9445,
      "dico": 9446,
      "aría": 9447,
      "francés": 9448,
      "tierra": 9449,
      "estar": 9450,
      "gía": 9451,
      "97": 9452,
      "Super": 9453,
      "porte": 9454,
      "bir": 9455,
      "cualquier": 9456,
      "países": 9457,
      "tribución": 9458,
      "simi": 9459,
      "porque": 9460,
      "af": 9461,
      "emple": 9462,
      "estación": 9463,
      "ben": 9464,
      "jugador": 9465,
      "anim": 9466,
      "video": 9467,
      "ert": 9468,
      "ocas": 9469,
      "influ": 9470,
      "mpe": 9471,
      "ingres": 9472,
      "ria": 9473,
      "infor": 9474,
      "enfr": 9475,
      "Wor": 9476,
      "superfici": 9477,
      "dec": 9478,
      "Ram": 9479,
      "guas": 9480,
      "Muni": 9481,
      "Cos": 9482,
      "Santia": 9483,
      "cera": 9484,
      "triz": 9485,
      "senci": 9486,
      "elem": 9487,
      "Santiago": 9488,
      "condi": 9489,
      "Minis": 9490,
      "cap": 9491,
      "90": 9492,
      "materi": 9493,
      "May": 9494,
      "pic": 9495,
      "político": 9496,
      "composi": 9497,
      "regu": 9498,
      "Cal": 9499,
      "recibió": 9500,
      "superior": 9501,
      "Jun": 9502,
      "original": 9503,
      "bilidad": 9504,
      "alto": 9505,
      "zon": 9506,
      "condu": 9507,
      "Mal": 9508,
      "Vir": 9509,
      "1992": 9510,
      "servicio": 9511,
      "use": 9512,
      "trodu": 9513,
      "corpor": 9514,
      "Del": 9515,
      "rin": 9516,
      "éc": 9517,
      "llegó": 9518,
      "grupos": 9519,
      "genes": 9520,
      "grado": 9521,
      "Unido": 9522,
      "ición": 9523,
      "dam": 9524,
      "dres": 9525,
      "lín": 9526,
      "peón": 9527,
      "pez": 9528,
      "Soci": 9529,
      "dice": 9530,
      "mm": 9531,
      "encar": 9532,
      "asi": 9533,
      "Fútbol": 9534,
      "alter": 9535,
      "Manuel": 9536,
      "1980": 9537,
      "op": 9538,
      "ría": 9539,
      "...": 9540,
      "emi": 9541,
      "gin": 9542,
      "campo": 9543,
      "tic": 9544,
      "fan": 9545,
      "estival": 9546,
      "última": 9547,
      "Instituto": 9548,
      "ias": 9549,
      "gico": 9550,
      "organiz": 9551,
      "datos": 9552,
      "considera": 9553,
      "Cer": 9554,
      "mani": 9555,
      "público": 9556,
      "ético": 9557,
      "Colombia": 9558,
      "XV": 9559,
      "nado": 9560,
      "Ja": 9561,
      "gh": 9562,
      "ww": 9563,
      "plata": 9564,
      "pp": 9565,
      "Casti": 9566,
      "villa": 9567,
      "administra": 9568,
      "cali": 9569,
      "edificio": 9570,
      "relación": 9571,
      "institu": 9572,
      "ónica": 9573,
      "cultura": 9574,
      "volución": 9575,
      "Esto": 9576,
      "alrededor": 9577,
      "proceso": 9578,
      "selección": 9579,
      "quí": 9580,
      "oló": 9581,
      "ambos": 9582,
      "tific": 9583,
      "debu": 9584,
      "reas": 9585,
      "iglesia": 9586,
      "Parti": 9587,
      "cono": 9588,
      "fab": 9589,
      "mbo": 9590,
      "mic": 9591,
      "abandon": 9592,
      "cli": 9593,
      "invi": 9594,
      "rad": 9595,
      "ies": 9596,
      "regis": 9597,
      "TV": 9598,
      "empresa": 9599,
      "Char": 9600,
      "zuela": 9601,
      "70": 9602,
      "ei": 9603,
      "Londres": 9604,
      "insta": 9605,
      "Conse": 9606,
      "amor": 9607,
      "Pelícu": 9608,
      "45": 9609,
      "ws": 9610,
      "colo": 9611,
      "lados": 9612,
      "serv": 9613,
      "lis": 9614,
      "principalmente": 9615,
      "sino": 9616,
      "minu": 9617,
      "española": 9618,
      "1993": 9619,
      "lante": 9620,
      "udo": 9621,
      "tz": 9622,
      "artí": 9623,
      "presión": 9624,
      "principios": 9625,
      "Dire": 9626,
      "Ara": 9627,
      "Gal": 9628,
      "ví": 9629,
      "Acade": 9630,
      "flor": 9631,
      "cina": 9632,
      "Vol": 9633,
      "tribu": 9634,
      "Don": 9635,
      "protagon": 9636,
      "seis": 9637,
      "ofici": 9638,
      "Museo": 9639,
      "micos": 9640,
      "estuvo": 9641,
      "greso": 9642,
      "encuentran": 9643,
      "enfrent": 9644,
      "Iglesia": 9645,
      "ense": 9646,
      "Japón": 9647,
      "igual": 9648,
      "Brasil": 9649,
      "entren": 9650,
      "cru": 9651,
      "mucho": 9652,
      "ling": 9653,
      "rique": 9654,
      "superficie": 9655,
      "medios": 9656,
      "1991": 9657,
      "Olí": 9658,
      "dividu": 9659,
      "33": 9660,
      "tería": 9661,
      "argent": 9662,
      "famili": 9663,
      "lista": 9664,
      "meses": 9665,
      "cuencia": 9666,
      "musical": 9667,
      "ejecu": 9668,
      "World": 9669,
      "ganó": 9670,
      "zan": 9671,
      "incluso": 9672,
      "sea": 9673,
      "sede": 9674,
      "Jer": 9675,
      "Th": 9676,
      "Án": 9677,
      "185": 9678,
      "local": 9679,
      "llamada": 9680,
      "cabo": 9681,
      "SA": 9682,
      "nar": 9683,
      "Bur": 9684,
      "mple": 9685,
      "til": 9686,
      "propio": 9687,
      "espos": 9688,
      "redu": 9689,
      "sidad": 9690,
      "común": 9691,
      "agr": 9692,
      "ker": 9693,
      "rán": 9694,
      "Demografía": 9695,
      "vie": 9696,
      "manas": 9697,
      "quia": 9698,
      "funcion": 9699,
      "elimin": 9700,
      "Regi": 9701,
      "usu": 9702,
      "significa": 9703,
      "Die": 9704,
      "Wi": 9705,
      "posible": 9706,
      "territorio": 9707,
      "control": 9708,
      "formar": 9709,
      "cuerpo": 9710,
      "palab": 9711,
      "relacion": 9712,
      "red": 9713,
      "Estu": 9714,
      "sería": 9715,
      "erta": 9716,
      "hos": 9717,
      "debe": 9718,
      "estaban": 9719,
      "mática": 9720,
      "guel": 9721,
      "empre": 9722,
      "Falle": 9723,
      "reno": 9724,
      "retir": 9725,
      "siempre": 9726,
      "Villa": 9727,
      "importantes": 9728,
      "cra": 9729,
      "Sta": 9730,
      "pose": 9731,
      "XI": 9732,
      "colabor": 9733,
      "unidades": 9734,
      "Álbum": 9735,
      "quin": 9736,
      "madre": 9737,
      "monta": 9738,
      "secre": 9739,
      "laterra": 9740,
      "ame": 9741,
      "Inglaterra": 9742,
      "acep": 9743,
      "produc": 9744,
      "conoc": 9745,
      "hija": 9746,
      "dría": 9747,
      "Fun": 9748,
      "técn": 9749,
      "dy": 9750,
      "Gi": 9751,
      "quis": 9752,
      "Películas": 9753,
      "mej": 9754,
      "perío": 9755,
      "medal": 9756,
      "determin": 9757,
      "alta": 9758,
      "Willi": 9759,
      "Os": 9760,
      "frica": 9761,
      "cé": 9762,
      "conjunto": 9763,
      "Ben": 9764,
      "universi": 9765,
      "muchas": 9766,
      "Gon": 9767,
      "movimiento": 9768,
      "ágina": 9769,
      "Califor": 9770,
      "finalmente": 9771,
      "1986": 9772,
      "Catal": 9773,
      "gencia": 9774,
      "ght": 9775,
      "voz": 9776,
      "Rey": 9777,
      "ficos": 9778,
      "pasó": 9779,
      "Miguel": 9780,
      "eración": 9781,
      "China": 9782,
      "prob": 9783,
      "ut": 9784,
      "cil": 9785,
      "California": 9786,
      "Tran": 9787,
      "estro": 9788,
      "siones": 9789,
      "1989": 9790,
      "recor": 9791,
      "euro": 9792,
      "ejército": 9793,
      "abo": 9794,
      "estructura": 9795,
      "tual": 9796,
      "declar": 9797,
      "departamento": 9798,
      "table": 9799,
      "Ve": 9800,
      "desarrolla": 9801,
      "dirección": 9802,
      "afir": 9803,
      "término": 9804,
      ".)": 9805,
      "Ga": 9806,
      "Chris": 9807,
      "Geografía": 9808,
      "pare": 9809,
      "Cá": 9810,
      "1985": 9811,
      "grie": 9812,
      "sólo": 9813,
      "mara": 9814,
      "Sec": 9815,
      "dados": 9816,
      "84": 9817,
      "udades": 9818,
      "Orden": 9819,
      "Amer": 9820,
      "caus": 9821,
      "sitio": 9822,
      "tric": 9823,
      "femen": 9824,
      "favor": 9825,
      "36": 9826,
      "esper": 9827,
      "erras": 9828,
      "natur": 9829,
      "tema": 9830,
      "ans": 9831,
      "dero": 9832,
      "Davi": 9833,
      "Mari": 9834,
      "Qui": 9835,
      "Hon": 9836,
      "liga": 9837,
      "vamente": 9838,
      "central": 9839,
      "puerto": 9840,
      "tía": 9841,
      "dica": 9842,
      "1970": 9843,
      "reuni": 9844,
      "Bla": 9845,
      "hijos": 9846,
      "investigación": 9847,
      "Venezuela": 9848,
      "posterior": 9849,
      "estre": 9850,
      "aliza": 9851,
      "rápi": 9852,
      "metro": 9853,
      "Cha": 9854,
      "Mc": 9855,
      "mex": 9856,
      "fle": 9857,
      "gio": 9858,
      "obis": 9859,
      "libre": 9860,
      "nombrado": 9861,
      "Bel": 9862,
      "Tele": 9863,
      "Bi": 9864,
      "ugu": 9865,
      "illo": 9866,
      "unas": 9867,
      "Europe": 9868,
      "entemente": 9869,
      "categoría": 9870,
      "menor": 9871,
      "opera": 9872,
      "icana": 9873,
      "Aunque": 9874,
      "Escri": 9875,
      "taciones": 9876,
      "cidental": 9877,
      "William": 9878,
      "individu": 9879,
      "resto": 9880,
      "organización": 9881,
      "hombre": 9882,
      "primero": 9883,
      "soli": 9884,
      "quitectura": 9885,
      "Balonces": 9886,
      "Fernando": 9887,
      "numeros": 9888,
      "once": 9889,
      "información": 9890,
      "CA": 9891,
      "publicado": 9892,
      "hermano": 9893,
      "Nu": 9894,
      "popular": 9895,
      "Jes": 9896,
      "exper": 9897,
      "falle": 9898,
      "candida": 9899,
      "compañía": 9900,
      "Álbumes": 9901,
      "soci": 9902,
      "dispon": 9903,
      "hoy": 9904,
      "34": 9905,
      "resultado": 9906,
      "Ángel": 9907,
      "guitar": 9908,
      "nes": 9909,
      "alia": 9910,
      "aún": 9911,
      "mación": 9912,
      "extra": 9913,
      "profesional": 9914,
      "ji": 9915,
      "dir": 9916,
      "personaje": 9917,
      "ting": 9918,
      "prác": 9919,
      "Cruz": 9920,
      "aparece": 9921,
      "ciendo": 9922,
      "posteriormente": 9923,
      "escuela": 9924,
      "reco": 9925,
      "Person": 9926,
      "Er": 9927,
      "fuerzas": 9928,
      "natural": 9929,
      "interior": 9930,
      "Bra": 9931,
      "cy": 9932,
      "tren": 9933,
      "cripción": 9934,
      "exi": 9935,
      "sie": 9936,
      "ung": 9937,
      "reconoci": 9938,
      "Algun": 9939,
      "ficios": 9940,
      "personal": 9941,
      "recu": 9942,
      "conta": 9943,
      "enfer": 9944,
      "1988": 9945,
      "lá": 9946,
      "amos": 9947,
      "Gobierno": 9948,
      "ror": 9949,
      "Ka": 9950,
      "fecha": 9951,
      "CO": 9952,
      "batalla": 9953,
      "tional": 9954,
      "dae": 9955,
      "cercan": 9956,
      "decir": 9957,
      "37": 9958,
      "vivi": 9959,
      "dientes": 9960,
      "futbol": 9961,
      "ky": 9962,
      "especialmente": 9963,
      "honor": 9964,
      "siguió": 9965,
      "drí": 9966,
      "Olímpicos": 9967,
      "obtuvo": 9968,
      "propor": 9969,
      "diver": 9970,
      "teatro": 9971,
      "antiguo": 9972,
      "libr": 9973,
      "tadas": 9974,
      "grab": 9975,
      "ot": 9976,
      "aproxim": 9977,
      "tánico": 9978,
      "único": 9979,
      "tyle": 9980,
      "realizó": 9981,
      "Río": 9982,
      "diseñ": 9983,
      "calle": 9984,
      "éndose": 9985,
      "38": 9986,
      "eri": 9987,
      "EE": 9988,
      "cti": 9989,
      "clo": 9990,
      "empla": 9991,
      "alo": 9992,
      "IN": 9993,
      "David": 9994,
      "taria": 9995,
      "introdu": 9996,
      "alemán": 9997,
      "FA": 9998,
      "período": 9999,
      "ches": 10000,
      "pecto": 10001,
      "trata": 10002,
      "espacio": 10003,
      "one": 10004,
      "densidad": 10005,
      "1987": 10006,
      "FC": 10007,
      "Atl": 10008,
      "ks": 10009,
      "ustri": 10010,
      "ampli": 10011,
      "modo": 10012,
      "jue": 10013,
      "Roma": 10014,
      "Más": 10015,
      "ístico": 10016,
      "León": 10017,
      "Actu": 10018,
      "capacidad": 10019,
      "Alber": 10020,
      "Consejo": 10021,
      "icamente": 10022,
      "Lin": 10023,
      "Men": 10024,
      "muestra": 10025,
      "gón": 10026,
      "atr": 10027,
      "celebr": 10028,
      "Escuela": 10029,
      "revista": 10030,
      "mencion": 10031,
      "servicios": 10032,
      "conce": 10033,
      "ecer": 10034,
      "Sol": 10035,
      "fri": 10036,
      "ofre": 10037,
      "trasla": 10038,
      "avan": 10039,
      "Tr": 10040,
      "hac": 10041,
      "Provin": 10042,
      "europe": 10043,
      "ku": 10044,
      "Lan": 10045,
      "Presiden": 10046,
      "ney": 10047,
      ");": 10048,
      "ny": 10049,
      "ash": 10050,
      "longi": 10051,
      "Hen": 10052,
      "inaugu": 10053,
      "47": 10054,
      "gente": 10055,
      "contro": 10056,
      "ahora": 10057,
      "ables": 10058,
      "puestos": 10059,
      "Bor": 10060,
      "Ali": 10061,
      "escritor": 10062,
      "cantante": 10063,
      "rock": 10064,
      "teca": 10065,
      "torneo": 10066,
      "Grupo": 10067,
      "ple": 10068,
      "Ab": 10069,
      "unca": 10070,
      "Video": 10071,
      "incorpor": 10072,
      "ward": 10073,
      "\"|": 10074,
      "texto": 10075,
      "paso": 10076,
      "proce": 10077,
      "guar": 10078,
      "ito": 10079,
      "jó": 10080,
      "bla": 10081,
      "pens": 10082,
      "joven": 10083,
      "extre": 10084,
      "tradu": 10085,
      "yn": 10086,
      "anto": 10087,
      "francesa": 10088,
      "cola": 10089,
      "derecho": 10090,
      "episodio": 10091,
      "style": 10092,
      "//": 10093,
      "iza": 10094,
      "participó": 10095,
      "incluyendo": 10096,
      "desapar": 10097,
      "torias": 10098,
      "autori": 10099,
      "campeón": 10100,
      "Cons": 10101,
      "mand": 10102,
      "ze": 10103,
      "ms": 10104,
      "sion": 10105,
      "ides": 10106,
      "sencillo": 10107,
      "Rusia": 10108,
      "tercer": 10109,
      "Academia": 10110,
      "modelo": 10111,
      "Ger": 10112,
      "net": 10113,
      "ubicada": 10114,
      "Polí": 10115,
      "tana": 10116,
      "desig": 10117,
      "formas": 10118,
      "cursos": 10119,
      "atra": 10120,
      "teor": 10121,
      "fuerte": 10122,
      "apoyo": 10123,
      "sil": 10124,
      "perteneci": 10125,
      "iló": 10126,
      "pital": 10127,
      "cató": 10128,
      "jar": 10129,
      "zada": 10130,
      "actividad": 10131,
      "íos": 10132,
      "desa": 10133,
      "titud": 10134,
      "ae": 10135,
      "creación": 10136,
      "BA": 10137,
      "Festival": 10138,
      "sir": 10139,
      "radio": 10140,
      "Ejército": 10141,
      "jes": 10142,
      "promo": 10143,
      "Vo": 10144,
      "grande": 10145,
      "anunció": 10146,
      "vada": 10147,
      "proces": 10148,
      "39": 10149,
      "Central": 10150,
      "zi": 10151,
      "comunidad": 10152,
      "ames": 10153,
      "edades": 10154,
      "1984": 10155,
      "zón": 10156,
      "ity": 10157,
      "adá": 10158,
      "dific": 10159,
      "cialmente": 10160,
      "landa": 10161,
      "isión": 10162,
      "Anti": 10163,
      "gre": 10164,
      "sola": 10165,
      "ted": 10166,
      "máxi": 10167,
      "futbolista": 10168,
      "dijo": 10169,
      "wo": 10170,
      "fí": 10171,
      "inado": 10172,
      "tú": 10173,
      "32": 10174,
      "jur": 10175,
      "diseño": 10176,
      "propia": 10177,
      "1960": 10178,
      "tama": 10179,
      "conoce": 10180,
      "demo": 10181,
      "ile": 10182,
      "conf": 10183,
      "Pue": 10184,
      "profun": 10185,
      "48": 10186,
      "llevó": 10187,
      "histór": 10188,
      "acciones": 10189,
      "limi": 10190,
      "we": 10191,
      "problemas": 10192,
      "vado": 10193,
      "valor": 10194,
      "anci": 10195,
      "bia": 10196,
      "ice": 10197,
      "eld": 10198,
      "Sil": 10199,
      "zonas": 10200,
      "cepción": 10201,
      "García": 10202,
      "War": 10203,
      "fá": 10204,
      "2023": 10205,
      "Ko": 10206,
      "gráfico": 10207,
      "ministro": 10208,
      "pl": 10209,
      "htt": 10210,
      "nació": 10211,
      "://": 10212,
      "temp": 10213,
      "Hay": 10214,
      "envi": 10215,
      "tenían": 10216,
      "ril": 10217,
      "elegido": 10218,
      "longitud": 10219,
      "Municip": 10220,
      "1983": 10221,
      "1982": 10222,
      "char": 10223,
      "cristi": 10224,
      "fru": 10225,
      "Dan": 10226,
      "patr": 10227,
      "Luego": 10228,
      "ecen": 10229,
      "actualmente": 10230,
      "ight": 10231,
      "deración": 10232,
      "Pala": 10233,
      "ocur": 10234,
      "².": 10235,
      "Gan": 10236,
      "clasific": 10237,
      "wi": 10238,
      "corre": 10239,
      "escu": 10240,
      "ández": 10241,
      "única": 10242,
      "Domin": 10243,
      "mala": 10244,
      "esco": 10245,
      "sigue": 10246,
      "Españ": 10247,
      "Hol": 10248,
      "otor": 10249,
      "mag": 10250,
      "Gonz": 10251,
      "plo": 10252,
      "tención": 10253,
      "Pen": 10254,
      "nego": 10255,
      "ejer": 10256,
      "casos": 10257,
      "India": 10258,
      "empe": 10259,
      "ciudades": 10260,
      "Casa": 10261,
      "ther": 10262,
      "algo": 10263,
      "elementos": 10264,
      "archi": 10265,
      "primeras": 10266,
      "derechos": 10267,
      "mpli": 10268,
      "Pin": 10269,
      "You": 10270,
      "icano": 10271,
      "provo": 10272,
      "premio": 10273,
      "desempe": 10274,
      "berg": 10275,
      "micas": 10276,
      "Dra": 10277,
      "antigua": 10278,
      "On": 10279,
      "situada": 10280,
      "clase": 10281,
      "novela": 10282,
      "Ley": 10283,
      "viol": 10284,
      "objetivo": 10285,
      "deri": 10286,
      "personajes": 10287,
      "partes": 10288,
      "aproximadamente": 10289,
      "particular": 10290,
      "shi": 10291,
      "País": 10292,
      "separ": 10293,
      "mul": 10294,
      "compi": 10295,
      "nunca": 10296,
      "yectoria": 10297,
      "incluye": 10298,
      "dena": 10299,
      "cula": 10300,
      "Fil": 10301,
      "legio": 10302,
      "Ay": 10303,
      "46": 10304,
      "planta": 10305,
      "Az": 10306,
      "ficas": 10307,
      "alizado": 10308,
      "esposa": 10309,
      "cantidad": 10310,
      "nuevos": 10311,
      "estren": 10312,
      "temas": 10313,
      "victoria": 10314,
      "nada": 10315,
      "teratura": 10316,
      "poten": 10317,
      "my": 10318,
      "IV": 10319,
      "adap": 10320,
      "fuerza": 10321,
      "mbre": 10322,
      "torios": 10323,
      "Ir": 10324,
      "vistas": 10325,
      "Record": 10326,
      "mol": 10327,
      "ífico": 10328,
      "películas": 10329,
      "gados": 10330,
      "tarios": 10331,
      "estión": 10332,
      "Fallecidos": 10333,
      "resta": 10334,
      "Premios": 10335,
      "pron": 10336,
      "Mos": 10337,
      "Dere": 10338,
      "Yu": 10339,
      "ablo": 10340,
      "Mac": 10341,
      "etapa": 10342,
      "ical": 10343,
      "bita": 10344,
      "publicó": 10345,
      "Paul": 10346,
      "way": 10347,
      "Que": 10348,
      "bili": 10349,
      "tecno": 10350,
      "trum": 10351,
      "75": 10352,
      "Bre": 10353,
      "pis": 10354,
      "Trans": 10355,
      "entales": 10356,
      "pequeño": 10357,
      "Sub": 10358,
      "logró": 10359,
      "siete": 10360,
      "form": 10361,
      "división": 10362,
      "ítu": 10363,
      "deral": 10364,
      "Cre": 10365,
      "NA": 10366,
      "ándo": 10367,
      "esp": 10368,
      "Pero": 10369,
      "participación": 10370,
      "imagen": 10371,
      "Star": 10372,
      "arca": 10373,
      "enca": 10374,
      "mí": 10375,
      "mate": 10376,
      "Robert": 10377,
      "ise": 10378,
      "aja": 10379,
      "tercera": 10380,
      "semi": 10381,
      "Australia": 10382,
      "Ana": 10383,
      "Baloncestistas": 10384,
      "Gol": 10385,
      "ford": 10386,
      "actividades": 10387,
      "Aso": 10388,
      "1979": 10389,
      "jefe": 10390,
      "interés": 10391,
      "ball": 10392,
      "Mag": 10393,
      "teniendo": 10394,
      "Jorge": 10395,
      "infer": 10396,
      "izquier": 10397,
      "Sam": 10398,
      "intent": 10399,
      "Imperio": 10400,
      "mático": 10401,
      "Jan": 10402,
      "Ur": 10403,
      "situación": 10404,
      "Oc": 10405,
      "Está": 10406,
      "Valle": 10407,
      "aument": 10408,
      "nuevas": 10409,
      "nación": 10410,
      "CD": 10411,
      "1981": 10412,
      "casti": 10413,
      "rios": 10414,
      "campaña": 10415,
      "kiló": 10416,
      "elen": 10417,
      "allí": 10418,
      "rido": 10419,
      "persona": 10420,
      "Congreso": 10421,
      "Bas": 10422,
      "descubier": 10423,
      "cieron": 10424,
      "costa": 10425,
      "Mil": 10426,
      "principio": 10427,
      "lez": 10428,
      "últimos": 10429,
      "descubri": 10430,
      "parro": 10431,
      "óp": 10432,
      "acompañ": 10433,
      "Monte": 10434,
      "marés": 10435,
      "escribió": 10436,
      "actriz": 10437,
      "tions": 10438,
      "profesor": 10439,
      "tte": 10440,
      "etc": 10441,
      "cados": 10442,
      "noche": 10443,
      "britán": 10444,
      "arti": 10445,
      "foto": 10446,
      "44": 10447,
      "luz": 10448,
      "ferro": 10449,
      "suces": 10450,
      "nie": 10451,
      "oma": 10452,
      "reempla": 10453,
      "guna": 10454,
      "Lor": 10455,
      "afec": 10456,
      "1976": 10457,
      "causa": 10458,
      "residen": 10459,
      "Sen": 10460,
      "95": 10461,
      "aplica": 10462,
      "1978": 10463,
      "dirigida": 10464,
      "cierto": 10465,
      "Teatro": 10466,
      "imo": 10467,
      "lando": 10468,
      "camente": 10469,
      "veloci": 10470,
      "ustria": 10471,
      "mato": 10472,
      "Tierra": 10473,
      "RA": 10474,
      "integr": 10475,
      "Peter": 10476,
      "Sala": 10477,
      "ferencia": 10478,
      "And": 10479,
      "Rich": 10480,
      "logo": 10481,
      "Kar": 10482,
      "enso": 10483,
      "prueba": 10484,
      "rón": 10485,
      "volvió": 10486,
      "500": 10487,
      "ES": 10488,
      "periodo": 10489,
      "referencia": 10490,
      "recuper": 10491,
      "chil": 10492,
      "idea": 10493,
      "expres": 10494,
      "ishes": 10495,
      "ington": 10496,
      "similar": 10497,
      "Ecu": 10498,
      "ines": 10499,
      "fac": 10500,
      "niños": 10501,
      "comuna": 10502,
      "Social": 10503,
      "TA": 10504,
      "ds": 10505,
      "conde": 10506,
      "Palmarés": 10507,
      "inici": 10508,
      "lucha": 10509,
      "preci": 10510,
      "realizar": 10511,
      "dente": 10512,
      "ayuda": 10513,
      "experim": 10514,
      "mental": 10515,
      "damente": 10516,
      "amientos": 10517,
      "mad": 10518,
      "públ": 10519,
      "Costa": 10520,
      "altura": 10521,
      "jugar": 10522,
      "mir": 10523,
      "cepto": 10524,
      "tamaño": 10525,
      "matrimonio": 10526,
      "posiciones": 10527,
      "decidió": 10528,
      "Tho": 10529,
      "icaciones": 10530,
      "pad": 10531,
      "presencia": 10532,
      "We": 10533,
      "pista": 10534,
      "har": 10535,
      "obli": 10536,
      "diferencia": 10537,
      "tomar": 10538,
      "menudo": 10539,
      "Che": 10540,
      "Eu": 10541,
      "cí": 10542,
      "Mé": 10543,
      "ladas": 10544,
      "ocup": 10545,
      "vera": 10546,
      "inferior": 10547,
      "glo": 10548,
      "VI": 10549,
      "Arte": 10550,
      "ller": 10551,
      "fís": 10552,
      "aso": 10553,
      "Ani": 10554,
      "marca": 10555,
      "cidente": 10556,
      "dicho": 10557,
      "puls": 10558,
      "tuvieron": 10559,
      "clas": 10560,
      "tropas": 10561,
      "presenta": 10562,
      "bras": 10563,
      "diversos": 10564,
      "lleva": 10565,
      "obispo": 10566,
      "asu": 10567,
      "competi": 10568,
      "uña": 10569,
      "rados": 10570,
      "st": 10571,
      "Carrera": 10572,
      "educación": 10573,
      "acab": 10574,
      "eléc": 10575,
      "Bos": 10576,
      "paración": 10577,
      "cm": 10578,
      "situado": 10579,
      "Así": 10580,
      "cro": 10581,
      "1977": 10582,
      "obs": 10583,
      "productor": 10584,
      "alu": 10585,
      "Distribución": 10586,
      "Pon": 10587,
      "mercado": 10588,
      "turo": 10589,
      "back": 10590,
      "1973": 10591,
      "Sitio": 10592,
      "Portu": 10593,
      "Mur": 10594,
      "dista": 10595,
      "cuyo": 10596,
      "goles": 10597,
      "defini": 10598,
      "49": 10599,
      "crá": 10600,
      "Vil": 10601,
      "lago": 10602,
      "consu": 10603,
      "blos": 10604,
      "ciencia": 10605,
      "osos": 10606,
      "polic": 10607,
      "energía": 10608,
      "zaron": 10609,
      "vuelta": 10610,
      "Canadá": 10611,
      "proporcion": 10612,
      "ataque": 10613,
      "Roc": 10614,
      "nave": 10615,
      "quienes": 10616,
      "descen": 10617,
      "sociedad": 10618,
      "180": 10619,
      "1975": 10620,
      "armas": 10621,
      "Artes": 10622,
      "liter": 10623,
      "My": 10624,
      "adqui": 10625,
      "rael": 10626,
      "quía": 10627,
      "Asociación": 10628,
      "libros": 10629,
      "Cine": 10630,
      "carre": 10631,
      "ira": 10632,
      "tle": 10633,
      "conven": 10634,
      "función": 10635,
      "ita": 10636,
      "Uru": 10637,
      "Equi": 10638,
      "suce": 10639,
      "cadas": 10640,
      "teros": 10641,
      "Estos": 10642,
      "ígen": 10643,
      "Mientras": 10644,
      "Cór": 10645,
      "Van": 10646,
      "Music": 10647,
      "une": 10648,
      "Constitu": 10649,
      "85": 10650,
      "bano": 10651,
      "cue": 10652,
      "Produ": 10653,
      "formó": 10654,
      "Señ": 10655,
      "Tex": 10656,
      "podría": 10657,
      "mitad": 10658,
      "participar": 10659,
      "Andr": 10660,
      "gobernador": 10661,
      "Lista": 10662,
      "artistas": 10663,
      "versas": 10664,
      "Organ": 10665,
      "gando": 10666,
      "Feli": 10667,
      "tida": 10668,
      "Martín": 10669,
      "medida": 10670,
      "ascen": 10671,
      "Hor": 10672,
      "dando": 10673,
      "pto": 10674,
      "Wo": 10675,
      "lanzado": 10676,
      "Tiene": 10677,
      "ticamente": 10678,
      "dipu": 10679,
      "cara": 10680,
      "Ló": 10681,
      "sac": 10682,
      "Pac": 10683,
      "Pablo": 10684,
      "pion": 10685,
      "actualidad": 10686,
      "65": 10687,
      "mann": 10688,
      "formado": 10689,
      "italiano": 10690,
      "fase": 10691,
      "viles": 10692,
      "von": 10693,
      "vador": 10694,
      "baja": 10695,
      "mediados": 10696,
      ".:": 10697,
      "permite": 10698,
      "bomb": 10699,
      "cabeza": 10700,
      "cando": 10701,
      "defensa": 10702,
      "queda": 10703,
      "probable": 10704,
      "Valencia": 10705,
      "manda": 10706,
      "flu": 10707,
      "”,": 10708,
      "pequeña": 10709,
      "Fre": 10710,
      "pol": 10711,
      "murió": 10712,
      "jugadores": 10713,
      "Jean": 10714,
      "tradicional": 10715,
      "yos": 10716,
      "lido": 10717,
      "42": 10718,
      "guez": 10719,
      "bación": 10720,
      "alcal": 10721,
      "igh": 10722,
      "Alex": 10723,
      "1974": 10724,
      "pudo": 10725,
      "plantas": 10726,
      "tró": 10727,
      "gira": 10728,
      "1972": 10729,
      "resi": 10730,
      "horas": 10731,
      "ezas": 10732,
      "Castilla": 10733,
      "pied": 10734,
      "Notas": 10735,
      "ire": 10736,
      "bronce": 10737,
      "ocasiones": 10738,
      "ertos": 10739,
      "1968": 10740,
      "gracias": 10741,
      "sistemas": 10742,
      "ocho": 10743,
      "ey": 10744,
      "ingeni": 10745,
      "internacionales": 10746,
      "llevar": 10747,
      "mundial": 10748,
      "SS": 10749,
      "Ya": 10750,
      "alma": 10751,
      "solu": 10752,
      "adé": 10753,
      "Ind": 10754,
      "aire": 10755,
      "vación": 10756,
      "industri": 10757,
      "cran": 10758,
      "die": 10759,
      "Blan": 10760,
      "Puerto": 10761,
      "medalla": 10762,
      "isis": 10763,
      "compuesto": 10764,
      "convertir": 10765,
      "Ofici": 10766,
      "perteneciente": 10767,
      "diez": 10768,
      "Prin": 10769,
      "dri": 10770,
      "mili": 10771,
      "extran": 10772,
      "toma": 10773,
      "Saint": 10774,
      "Ten": 10775,
      "remo": 10776,
      "respec": 10777,
      "Vie": 10778,
      "ican": 10779,
      "tinos": 10780,
      "Enrique": 10781,
      "Dios": 10782,
      "Uruguay": 10783,
      "ibles": 10784,
      "sue": 10785,
      "representa": 10786,
      "Posteriormente": 10787,
      "Dar": 10788,
      "mejores": 10789,
      "López": 10790,
      "City": 10791,
      "motor": 10792,
      "coron": 10793,
      "Página": 10794,
      "canal": 10795,
      "Records": 10796,
      "material": 10797,
      "Stu": 10798,
      "tieron": 10799,
      "Black": 10800,
      "finaliz": 10801,
      "diversas": 10802,
      "enda": 10803,
      "llam": 10804,
      "cultural": 10805,
      "figura": 10806,
      "Córdo": 10807,
      "Mejor": 10808,
      "top": 10809,
      "cipe": 10810,
      "torno": 10811,
      "99": 10812,
      "barrio": 10813,
      "cesis": 10814,
      "Tro": 10815,
      "Bill": 10816,
      "artículo": 10817,
      "Espe": 10818,
      "andro": 10819,
      "quedó": 10820,
      "encontrar": 10821,
      "secu": 10822,
      "sustitu": 10823,
      "interes": 10824,
      "combate": 10825,
      "seguridad": 10826,
      "civil": 10827,
      "55": 10828,
      "gicos": 10829,
      "plaza": 10830,
      "lanzamiento": 10831,
      "camino": 10832,
      "ão": 10833,
      "gü": 10834,
      "blanco": 10835,
      "viaj": 10836,
      "lugares": 10837,
      "enferme": 10838,
      "Videojuegos": 10839,
      "Econ": 10840,
      "líder": 10841,
      "Ciencias": 10842,
      "Sud": 10843,
      "puso": 10844,
      "rom": 10845,
      "kilómetros": 10846,
      "relaciones": 10847,
      "incluyen": 10848,
      "cus": 10849,
      "minutos": 10850,
      "rando": 10851,
      "pedi": 10852,
      "Radio": 10853,
      "sector": 10854,
      "ofía": 10855,
      "Ren": 10856,
      "pone": 10857,
      "humanos": 10858,
      "pra": 10859,
      "”.": 10860,
      "James": 10861,
      "CI": 10862,
      "Escritores": 10863,
      "acceso": 10864,
      "Elec": 10865,
      "mula": 10866,
      "crear": 10867,
      "erro": 10868,
      "1950": 10869,
      "right": 10870,
      "88": 10871,
      "militares": 10872,
      "nez": 10873,
      "Profes": 10874,
      "pilo": 10875,
      "colec": 10876,
      "Ficha": 10877,
      "propiedad": 10878,
      "usticia": 10879,
      "asis": 10880,
      "contrib": 10881,
      "cuya": 10882,
      "burgo": 10883,
      "Ministerio": 10884,
      "ordin": 10885,
      "perador": 10886,
      "vs": 10887,
      "simple": 10888,
      "electr": 10889,
      "Dani": 10890,
      "mith": 10891,
      "velocidad": 10892,
      "deres": 10893,
      "Han": 10894,
      "hícu": 10895,
      "dentes": 10896,
      "distancia": 10897,
      "Oli": 10898,
      "tipos": 10899,
      "''": 10900,
      "gió": 10901,
      "inación": 10902,
      "ónimo": 10903,
      "Deportivo": 10904,
      "tano": 10905,
      "confir": 10906,
      "1969": 10907,
      "Emp": 10908,
      "1971": 10909,
      "fines": 10910,
      "Secre": 10911,
      "enter": 10912,
      "cero": 10913,
      "sociales": 10914,
      "elos": 10915,
      "Ph": 10916,
      "Censo": 10917,
      "ville": 10918,
      "Jesús": 10919,
      "memor": 10920,
      "rus": 10921,
      "Bern": 10922,
      "asoci": 10923,
      "Día": 10924,
      "landia": 10925,
      "ficamente": 10926,
      "Sue": 10927,
      "lie": 10928,
      "trabajos": 10929,
      "África": 10930,
      "mágenes": 10931,
      "Tour": 10932,
      "Sha": 10933,
      "presentó": 10934,
      "álisis": 10935,
      "características": 10936,
      "idio": 10937,
      "locales": 10938,
      "Cham": 10939,
      "exo": 10940,
      "tesis": 10941,
      "presente": 10942,
      "Córdoba": 10943,
      "Mic": 10944,
      "entrada": 10945,
      "artista": 10946,
      "rue": 10947,
      "venes": 10948,
      "uales": 10949,
      "abilidad": 10950,
      "bro": 10951,
      "sey": 10952,
      "uns": 10953,
      "ware": 10954,
      "Dipu": 10955,
      "pedia": 10956,
      "Lima": 10957,
      "dea": 10958,
      "ficaciones": 10959,
      "Sociedad": 10960,
      "BC": 10961,
      "Actualmente": 10962,
      "lanzó": 10963,
      "masi": 10964,
      "quer": 10965,
      "uido": 10966,
      "lip": 10967,
      "jugó": 10968,
      "instrum": 10969,
      "audi": 10970,
      "Departamento": 10971,
      "políticos": 10972,
      "fusión": 10973,
      "impres": 10974,
      "venida": 10975,
      "Bru": 10976,
      "Jack": 10977,
      "descrita": 10978,
      "americanos": 10979,
      "sala": 10980,
      "abel": 10981,
      "debut": 10982,
      "compren": 10983,
      "cumpli": 10984,
      "amble": 10985,
      "máticas": 10986,
      "calidad": 10987,
      "tch": 10988,
      "generalmente": 10989,
      "perió": 10990,
      "dicos": 10991,
      "inspi": 10992,
      "verano": 10993,
      "corri": 10994,
      "untamiento": 10995,
      "desarrol": 10996,
      "tismo": 10997,
      "Micha": 10998,
      "condiciones": 10999,
      "cau": 11000,
      "Fuer": 11001,
      "pasado": 11002,
      "productos": 11003,
[...]
